{
  "version": "1.0",
  "truncation": {
    "direction": "Right",
    "max_length": 128,
    "strategy": "LongestFirst",
    "stride": 0
  },
  "padding": {
    "strategy": "BatchLongest",
    "direction": "Right",
    "pad_to_multiple_of": null,
    "pad_id": 0,
    "pad_type_id": 0,
    "pad_token": "[PAD]"
  },
  "added_tokens": [
    {
      "id": 0,
      "content": "[PAD]",
      "single_word": false,
      "lstrip": false,
      "rstrip": false,
      "normalized": false,
      "special": true
    },
    {
      "id": 1,
      "content": "[UNK]",
      "single_word": false,
      "lstrip": false,
      "rstrip": false,
      "normalized": false,
      "special": true
    },
    {
      "id": 2,
      "content": "[CLS]",
      "single_word": false,
      "lstrip": false,
      "rstrip": false,
      "normalized": false,
      "special": true
    },
    {
      "id": 3,
      "content": "[SEP]",
      "single_word": false,
      "lstrip": false,
      "rstrip": false,
      "normalized": false,
      "special": true
    },
    {
      "id": 4,
      "content": "[MASK]",
      "single_word": false,
      "lstrip": false,
      "rstrip": false,
      "normalized": false,
      "special": true
    }
  ],
  "normalizer": {
    "type": "BertNormalizer",
    "clean_text": true,
    "handle_chinese_chars": true,
    "strip_accents": null,
    "lowercase": false
  },
  "pre_tokenizer": {
    "type": "BertPreTokenizer"
  },
  "post_processor": {
    "type": "TemplateProcessing",
    "single": [
      {
        "SpecialToken": {
          "id": "[CLS]",
          "type_id": 0
        }
      },
      {
        "Sequence": {
          "id": "A",
          "type_id": 0
        }
      },
      {
        "SpecialToken": {
          "id": "[SEP]",
          "type_id": 0
        }
      }
    ],
    "pair": [
      {
        "SpecialToken": {
          "id": "[CLS]",
          "type_id": 0
        }
      },
      {
        "Sequence": {
          "id": "A",
          "type_id": 0
        }
      },
      {
        "SpecialToken": {
          "id": "[SEP]",
          "type_id": 0
        }
      },
      {
        "Sequence": {
          "id": "B",
          "type_id": 1
        }
      },
      {
        "SpecialToken": {
          "id": "[SEP]",
          "type_id": 1
        }
      }
    ],
    "special_tokens": {
      "[CLS]": {
        "id": "[CLS]",
        "ids": [
          2
        ],
        "tokens": [
          "[CLS]"
        ]
      },
      "[SEP]": {
        "id": "[SEP]",
        "ids": [
          3
        ],
        "tokens": [
          "[SEP]"
        ]
      }
    }
  },
  "decoder": {
    "type": "WordPiece",
    "prefix": "##",
    "cleanup": true
  },
  "model": {
    "type": "WordPiece",
    "unk_token": "[UNK]",
    "continuing_subword_prefix": "##",
    "max_input_chars_per_word": 100,
    "vocab": {
      "[PAD]": 0,
      "[UNK]": 1,
      "[CLS]": 2,
      "[SEP]": 3,
      "[MASK]": 4,
      "!": 5,
      "\"": 6,
      "#": 7,
      "$": 8,
      "%": 9,
      "&": 10,
      "'": 11,
      "(": 12,
      ")": 13,
      "*": 14,
      "+": 15,
      ",": 16,
      "-": 17,
      ".": 18,
      "/": 19,
      "0": 20,
      "1": 21,
      "2": 22,
      "3": 23,
      "4": 24,
      "5": 25,
      "6": 26,
      "7": 27,
      "8": 28,
      "9": 29,
      ":": 30,
      ";": 31,
      "=": 32,
      "?": 33,
      "@": 34,
      "A": 35,
      "B": 36,
      "C": 37,
      "D": 38,
      "E": 39,
      "F": 40,
      "G": 41,
      "H": 42,
      "I": 43,
      "J": 44,
      "K": 45,
      "L": 46,
      "M": 47,
      "N": 48,
      "O": 49,
      "P": 50,
      "Q": 51,
      "R": 52,
      "S": 53,
      "T": 54,
      "U": 55,
      "V": 56,
      "W": 57,
      "X": 58,
      "Y": 59,
      "Z": 60,
      "[": 61,
      "\\": 62,
      "]": 63,
      "^": 64,
      "_": 65,
      "`": 66,
      "a": 67,
      "b": 68,
      "c": 69,
      "d": 70,
      "e": 71,
      "f": 72,
      "g": 73,
      "h": 74,
      "i": 75,
      "j": 76,
      "k": 77,
      "l": 78,
      "m": 79,
      "n": 80,
      "o": 81,
      "p": 82,
      "q": 83,
      "r": 84,
      "s": 85,
      "t": 86,
      "u": 87,
      "v": 88,
      "w": 89,
      "x": 90,
      "y": 91,
      "z": 92,
      "{": 93,
      "|": 94,
      "}": 95,
      "~": 96,
      "¡": 97,
      "£": 98,
      "¤": 99,
      "¥": 100,
      "°": 101,
      "´": 102,
      "·": 103,
      "¿": 104,
      "×": 105,
      "ì": 106,
      "÷": 107,
      "˘": 108,
      "̀": 109,
      "́": 110,
      "̄": 111,
      "̆": 112,
      "̈": 113,
      "̊": 114,
      "̌": 115,
      "̎": 116,
      "̐": 117,
      "̑": 118,
      "̤": 119,
      "̳": 120,
      "Δ": 121,
      "ω": 122,
      "ا": 123,
      "ل": 124,
      "و": 125,
      "ࠅ": 126,
      "ง": 127,
      "ิ": 128,
      "ึ": 129,
      "็": 130,
      "้": 131,
      "๑": 132,
      "ᄋ": 133,
      "ᄏ": 134,
      "ᅠ": 135,
      "ᅡ": 136,
      "ᅵ": 137,
      "ᆞ": 138,
      "ᆢ": 139,
      "ᆫ": 140,
      "ᒺ": 141,
      "ᕙ": 142,
      "ᗜ": 143,
      "ᵔ": 144,
      "‐": 145,
      "–": 146,
      "—": 147,
      "‘": 148,
      "’": 149,
      "“": 150,
      "”": 151,
      "•": 152,
      "‥": 153,
      "…": 154,
      "‧": 155,
      "※": 156,
      "‼": 157,
      "‽": 158,
      "⁉": 159,
      "₩": 160,
      "€": 161,
      "⃣": 162,
      "←": 163,
      "↑": 164,
      "→": 165,
      "↓": 166,
      "↔": 167,
      "↗": 168,
      "↘": 169,
      "↙": 170,
      "⇒": 171,
      "∼": 172,
      "≫": 173,
      "⊙": 174,
      "⏪": 175,
      "①": 176,
      "②": 177,
      "③": 178,
      "④": 179,
      "⑤": 180,
      "⑥": 181,
      "ⓘ": 182,
      "━": 183,
      "┈": 184,
      "▄": 185,
      "▅": 186,
      "▆": 187,
      "▇": 188,
      "█": 189,
      "▓": 190,
      "■": 191,
      "□": 192,
      "▪": 193,
      "▲": 194,
      "△": 195,
      "▶": 196,
      "▷": 197,
      "▽": 198,
      "▾": 199,
      "◀": 200,
      "◆": 201,
      "◇": 202,
      "◈": 203,
      "○": 204,
      "◎": 205,
      "●": 206,
      "◐": 207,
      "◑": 208,
      "◘": 209,
      "◡": 210,
      "☀": 211,
      "☄": 212,
      "★": 213,
      "☆": 214,
      "☎": 215,
      "☜": 216,
      "☝": 217,
      "☞": 218,
      "☠": 219,
      "☢": 220,
      "☣": 221,
      "☹": 222,
      "☺": 223,
      "☻": 224,
      "♀": 225,
      "♂": 226,
      "♠": 227,
      "♡": 228,
      "♣": 229,
      "♤": 230,
      "♥": 231,
      "♦": 232,
      "♧": 233,
      "♨": 234,
      "♩": 235,
      "♪": 236,
      "♬": 237,
      "⚀": 238,
      "⚖": 239,
      "⚘": 240,
      "⚠": 241,
      "⚡": 242,
      "⚫": 243,
      "⚰": 244,
      "⛄": 245,
      "⛔": 246,
      "✂": 247,
      "✅": 248,
      "✈": 249,
      "✊": 250,
      "✋": 251,
      "✌": 252,
      "✔": 253,
      "✖": 254,
      "✚": 255,
      "✨": 256,
      "✳": 257,
      "✿": 258,
      "❄": 259,
      "❅": 260,
      "❌": 261,
      "❎": 262,
      "❓": 263,
      "❗": 264,
      "❣": 265,
      "❤": 266,
      "➖": 267,
      "➡": 268,
      "⟨": 269,
      "⟩": 270,
      "⠀": 271,
      "⣿": 272,
      "⫬": 273,
      "⬆": 274,
      "⬛": 275,
      "⭐": 276,
      "⭕": 277,
      "、": 278,
      "。": 279,
      "《": 280,
      "》": 281,
      "「": 282,
      "」": 283,
      "『": 284,
      "』": 285,
      "【": 286,
      "】": 287,
      "〓": 288,
      "〰": 289,
      "あ": 290,
      "い": 291,
      "う": 292,
      "え": 293,
      "お": 294,
      "か": 295,
      "が": 296,
      "き": 297,
      "く": 298,
      "け": 299,
      "こ": 300,
      "さ": 301,
      "し": 302,
      "す": 303,
      "せ": 304,
      "そ": 305,
      "た": 306,
      "だ": 307,
      "ち": 308,
      "っ": 309,
      "つ": 310,
      "て": 311,
      "で": 312,
      "と": 313,
      "ど": 314,
      "な": 315,
      "に": 316,
      "ね": 317,
      "の": 318,
      "は": 319,
      "ば": 320,
      "ま": 321,
      "め": 322,
      "も": 323,
      "や": 324,
      "よ": 325,
      "ら": 326,
      "り": 327,
      "る": 328,
      "れ": 329,
      "ろ": 330,
      "わ": 331,
      "を": 332,
      "ん": 333,
      "゜": 334,
      "イ": 335,
      "ウ": 336,
      "カ": 337,
      "ス": 338,
      "チ": 339,
      "バ": 340,
      "ョ": 341,
      "ラ": 342,
      "リ": 343,
      "ル": 344,
      "ヲ": 345,
      "ン": 346,
      "・": 347,
      "ー": 348,
      "ヽ": 349,
      "ㄱ": 350,
      "ㄲ": 351,
      "ㄳ": 352,
      "ㄴ": 353,
      "ㄷ": 354,
      "ㄸ": 355,
      "ㄹ": 356,
      "ㄺ": 357,
      "ㅁ": 358,
      "ㅂ": 359,
      "ㅃ": 360,
      "ㅄ": 361,
      "ㅅ": 362,
      "ㅆ": 363,
      "ㅇ": 364,
      "ㅈ": 365,
      "ㅉ": 366,
      "ㅊ": 367,
      "ㅋ": 368,
      "ㅌ": 369,
      "ㅍ": 370,
      "ㅎ": 371,
      "ㅏ": 372,
      "ㅐ": 373,
      "ㅑ": 374,
      "ㅒ": 375,
      "ㅓ": 376,
      "ㅔ": 377,
      "ㅕ": 378,
      "ㅖ": 379,
      "ㅗ": 380,
      "ㅘ": 381,
      "ㅙ": 382,
      "ㅚ": 383,
      "ㅛ": 384,
      "ㅜ": 385,
      "ㅝ": 386,
      "ㅞ": 387,
      "ㅟ": 388,
      "ㅠ": 389,
      "ㅡ": 390,
      "ㅢ": 391,
      "ㅣ": 392,
      "ㅤ": 393,
      "ㆍ": 394,
      "㊗": 395,
      "㎞": 396,
      "㎡": 397,
      "一": 398,
      "万": 399,
      "三": 400,
      "上": 401,
      "下": 402,
      "不": 403,
      "且": 404,
      "世": 405,
      "东": 406,
      "个": 407,
      "中": 408,
      "为": 409,
      "主": 410,
      "么": 411,
      "义": 412,
      "之": 413,
      "也": 414,
      "习": 415,
      "了": 416,
      "事": 417,
      "二": 418,
      "于": 419,
      "亡": 420,
      "产": 421,
      "京": 422,
      "亲": 423,
      "人": 424,
      "什": 425,
      "他": 426,
      "付": 427,
      "代": 428,
      "以": 429,
      "们": 430,
      "件": 431,
      "会": 432,
      "住": 433,
      "体": 434,
      "何": 435,
      "作": 436,
      "你": 437,
      "使": 438,
      "保": 439,
      "信": 440,
      "修": 441,
      "候": 442,
      "倭": 443,
      "做": 444,
      "像": 445,
      "儿": 446,
      "先": 447,
      "光": 448,
      "党": 449,
      "入": 450,
      "內": 451,
      "全": 452,
      "八": 453,
      "公": 454,
      "共": 455,
      "关": 456,
      "兵": 457,
      "再": 458,
      "写": 459,
      "凸": 460,
      "出": 461,
      "刀": 462,
      "分": 463,
      "划": 464,
      "利": 465,
      "别": 466,
      "到": 467,
      "制": 468,
      "前": 469,
      "劉": 470,
      "力": 471,
      "功": 472,
      "加": 473,
      "动": 474,
      "動": 475,
      "勝": 476,
      "化": 477,
      "北": 478,
      "十": 479,
      "千": 480,
      "半": 481,
      "华": 482,
      "协": 483,
      "南": 484,
      "卜": 485,
      "去": 486,
      "及": 487,
      "反": 488,
      "发": 489,
      "口": 490,
      "古": 491,
      "可": 492,
      "台": 493,
      "史": 494,
      "吃": 495,
      "合": 496,
      "同": 497,
      "名": 498,
      "后": 499,
      "吗": 500,
      "君": 501,
      "吧": 502,
      "听": 503,
      "吾": 504,
      "告": 505,
      "呢": 506,
      "命": 507,
      "和": 508,
      "哈": 509,
      "啊": 510,
      "問": 511,
      "善": 512,
      "喜": 513,
      "嘴": 514,
      "回": 515,
      "因": 516,
      "国": 517,
      "國": 518,
      "土": 519,
      "在": 520,
      "地": 521,
      "垮": 522,
      "士": 523,
      "外": 524,
      "多": 525,
      "夢": 526,
      "大": 527,
      "天": 528,
      "太": 529,
      "失": 530,
      "夷": 531,
      "女": 532,
      "奴": 533,
      "好": 534,
      "如": 535,
      "妈": 536,
      "威": 537,
      "子": 538,
      "字": 539,
      "学": 540,
      "學": 541,
      "安": 542,
      "定": 543,
      "害": 544,
      "家": 545,
      "密": 546,
      "寇": 547,
      "察": 548,
      "对": 549,
      "导": 550,
      "将": 551,
      "對": 552,
      "小": 553,
      "尔": 554,
      "就": 555,
      "尹": 556,
      "局": 557,
      "展": 558,
      "屠": 559,
      "山": 560,
      "島": 561,
      "崩": 562,
      "州": 563,
      "工": 564,
      "左": 565,
      "己": 566,
      "市": 567,
      "希": 568,
      "帝": 569,
      "席": 570,
      "平": 571,
      "年": 572,
      "应": 573,
      "府": 574,
      "开": 575,
      "弔": 576,
      "引": 577,
      "强": 578,
      "当": 579,
      "很": 580,
      "後": 581,
      "得": 582,
      "從": 583,
      "德": 584,
      "心": 585,
      "必": 586,
      "志": 587,
      "忘": 588,
      "忠": 589,
      "态": 590,
      "怎": 591,
      "思": 592,
      "性": 593,
      "恨": 594,
      "您": 595,
      "情": 596,
      "惡": 597,
      "想": 598,
      "意": 599,
      "愛": 600,
      "感": 601,
      "成": 602,
      "我": 603,
      "戰": 604,
      "所": 605,
      "手": 606,
      "才": 607,
      "打": 608,
      "找": 609,
      "把": 610,
      "披": 611,
      "持": 612,
      "支": 613,
      "放": 614,
      "政": 615,
      "故": 616,
      "敵": 617,
      "文": 618,
      "新": 619,
      "方": 620,
      "族": 621,
      "日": 622,
      "时": 623,
      "明": 624,
      "是": 625,
      "時": 626,
      "暗": 627,
      "曉": 628,
      "曰": 629,
      "書": 630,
      "曺": 631,
      "最": 632,
      "月": 633,
      "有": 634,
      "望": 635,
      "朝": 636,
      "未": 637,
      "本": 638,
      "朴": 639,
      "机": 640,
      "杀": 641,
      "权": 642,
      "李": 643,
      "来": 644,
      "東": 645,
      "果": 646,
      "标": 647,
      "样": 648,
      "棒": 649,
      "業": 650,
      "檢": 651,
      "權": 652,
      "次": 653,
      "欢": 654,
      "正": 655,
      "此": 656,
      "武": 657,
      "死": 658,
      "殃": 659,
      "殺": 660,
      "毁": 661,
      "母": 662,
      "毒": 663,
      "比": 664,
      "毛": 665,
      "氏": 666,
      "民": 667,
      "氣": 668,
      "水": 669,
      "汚": 670,
      "没": 671,
      "油": 672,
      "治": 673,
      "法": 674,
      "泡": 675,
      "波": 676,
      "洪": 677,
      "活": 678,
      "海": 679,
      "消": 680,
      "淸": 681,
      "清": 682,
      "港": 683,
      "湾": 684,
      "溃": 685,
      "滅": 686,
      "演": 687,
      "漢": 688,
      "火": 689,
      "災": 690,
      "点": 691,
      "無": 692,
      "然": 693,
      "爱": 694,
      "爲": 695,
      "父": 696,
      "爸": 697,
      "牛": 698,
      "物": 699,
      "犬": 700,
      "狂": 701,
      "狗": 702,
      "独": 703,
      "王": 704,
      "现": 705,
      "現": 706,
      "理": 707,
      "生": 708,
      "産": 709,
      "用": 710,
      "田": 711,
      "由": 712,
      "甲": 713,
      "男": 714,
      "界": 715,
      "病": 716,
      "發": 717,
      "白": 718,
      "百": 719,
      "的": 720,
      "皇": 721,
      "益": 722,
      "目": 723,
      "相": 724,
      "看": 725,
      "真": 726,
      "着": 727,
      "知": 728,
      "石": 729,
      "破": 730,
      "示": 731,
      "社": 732,
      "祖": 733,
      "祝": 734,
      "神": 735,
      "禍": 736,
      "福": 737,
      "私": 738,
      "秋": 739,
      "秘": 740,
      "空": 741,
      "立": 742,
      "章": 743,
      "笑": 744,
      "等": 745,
      "篇": 746,
      "米": 747,
      "精": 748,
      "統": 749,
      "结": 750,
      "给": 751,
      "维": 752,
      "网": 753,
      "罪": 754,
      "美": 755,
      "義": 756,
      "者": 757,
      "而": 758,
      "耐": 759,
      "能": 760,
      "腐": 761,
      "臣": 762,
      "自": 763,
      "臭": 764,
      "與": 765,
      "色": 766,
      "英": 767,
      "菜": 768,
      "萬": 769,
      "藏": 770,
      "處": 771,
      "蚊": 772,
      "蛋": 773,
      "蟲": 774,
      "血": 775,
      "行": 776,
      "表": 777,
      "被": 778,
      "裁": 779,
      "西": 780,
      "要": 781,
      "見": 782,
      "親": 783,
      "见": 784,
      "解": 785,
      "言": 786,
      "記": 787,
      "變": 788,
      "计": 789,
      "让": 790,
      "记": 791,
      "讲": 792,
      "论": 793,
      "评": 794,
      "诉": 795,
      "话": 796,
      "该": 797,
      "语": 798,
      "说": 799,
      "诸": 800,
      "谢": 801,
      "賊": 802,
      "賣": 803,
      "败": 804,
      "赞": 805,
      "起": 806,
      "足": 807,
      "身": 808,
      "軍": 809,
      "輪": 810,
      "轮": 811,
      "过": 812,
      "迎": 813,
      "近": 814,
      "还": 815,
      "这": 816,
      "进": 817,
      "逼": 818,
      "道": 819,
      "那": 820,
      "部": 821,
      "都": 822,
      "酸": 823,
      "醜": 824,
      "里": 825,
      "重": 826,
      "野": 827,
      "金": 828,
      "錄": 829,
      "長": 830,
      "門": 831,
      "間": 832,
      "门": 833,
      "问": 834,
      "集": 835,
      "雜": 836,
      "露": 837,
      "靑": 838,
      "非": 839,
      "面": 840,
      "韓": 841,
      "韩": 842,
      "領": 843,
      "頭": 844,
      "題": 845,
      "顺": 846,
      "领": 847,
      "食": 848,
      "首": 849,
      "香": 850,
      "馬": 851,
      "骂": 852,
      "高": 853,
      "鬼": 854,
      "鮮": 855,
      "鲜": 856,
      "黨": 857,
      "ꉂ": 858,
      "꙼": 859,
      "가": 860,
      "각": 861,
      "갂": 862,
      "갃": 863,
      "간": 864,
      "갇": 865,
      "갈": 866,
      "갉": 867,
      "감": 868,
      "갑": 869,
      "값": 870,
      "갓": 871,
      "갔": 872,
      "강": 873,
      "갖": 874,
      "갗": 875,
      "갘": 876,
      "같": 877,
      "갚": 878,
      "갛": 879,
      "개": 880,
      "객": 881,
      "갠": 882,
      "갤": 883,
      "갬": 884,
      "갭": 885,
      "갮": 886,
      "갯": 887,
      "갰": 888,
      "갱": 889,
      "갲": 890,
      "갵": 891,
      "갸": 892,
      "갹": 893,
      "갼": 894,
      "걀": 895,
      "걈": 896,
      "걍": 897,
      "걑": 898,
      "걔": 899,
      "걘": 900,
      "걩": 901,
      "거": 902,
      "걱": 903,
      "건": 904,
      "걷": 905,
      "걸": 906,
      "검": 907,
      "겁": 908,
      "겂": 909,
      "것": 910,
      "겄": 911,
      "겅": 912,
      "겆": 913,
      "겈": 914,
      "겉": 915,
      "겋": 916,
      "게": 917,
      "겍": 918,
      "겎": 919,
      "겐": 920,
      "겔": 921,
      "겜": 922,
      "겝": 923,
      "겟": 924,
      "겠": 925,
      "겡": 926,
      "겢": 927,
      "겤": 928,
      "겧": 929,
      "겨": 930,
      "격": 931,
      "겪": 932,
      "견": 933,
      "결": 934,
      "겸": 935,
      "겹": 936,
      "겻": 937,
      "겼": 938,
      "경": 939,
      "곀": 940,
      "곁": 941,
      "계": 942,
      "곈": 943,
      "곌": 944,
      "곗": 945,
      "곘": 946,
      "곙": 947,
      "고": 948,
      "곡": 949,
      "곤": 950,
      "곧": 951,
      "골": 952,
      "곪": 953,
      "곯": 954,
      "곰": 955,
      "곱": 956,
      "곳": 957,
      "공": 958,
      "곶": 959,
      "곷": 960,
      "곸": 961,
      "곹": 962,
      "곺": 963,
      "과": 964,
      "곽": 965,
      "관": 966,
      "괄": 967,
      "괌": 968,
      "광": 969,
      "괘": 970,
      "괙": 971,
      "괜": 972,
      "괞": 973,
      "괭": 974,
      "괴": 975,
      "괵": 976,
      "괸": 977,
      "굉": 978,
      "교": 979,
      "굔": 980,
      "굘": 981,
      "굣": 982,
      "굥": 983,
      "구": 984,
      "국": 985,
      "군": 986,
      "굳": 987,
      "굴": 988,
      "굵": 989,
      "굶": 990,
      "굷": 991,
      "굻": 992,
      "굼": 993,
      "굽": 994,
      "굿": 995,
      "궁": 996,
      "궂": 997,
      "궃": 998,
      "궄": 999,
      "궈": 1000,
      "궉": 1001,
      "권": 1002,
      "궐": 1003,
      "궘": 1004,
      "궛": 1005,
      "궜": 1006,
      "궝": 1007,
      "궤": 1008,
      "궸": 1009,
      "궹": 1010,
      "귀": 1011,
      "귁": 1012,
      "귄": 1013,
      "귈": 1014,
      "귐": 1015,
      "귓": 1016,
      "규": 1017,
      "귝": 1018,
      "균": 1019,
      "귤": 1020,
      "귱": 1021,
      "그": 1022,
      "극": 1023,
      "근": 1024,
      "귾": 1025,
      "귿": 1026,
      "글": 1027,
      "긁": 1028,
      "긂": 1029,
      "긇": 1030,
      "금": 1031,
      "급": 1032,
      "긋": 1033,
      "긌": 1034,
      "긍": 1035,
      "긎": 1036,
      "긐": 1037,
      "긑": 1038,
      "긒": 1039,
      "긔": 1040,
      "긕": 1041,
      "긧": 1042,
      "기": 1043,
      "긱": 1044,
      "긴": 1045,
      "긷": 1046,
      "길": 1047,
      "김": 1048,
      "깁": 1049,
      "깂": 1050,
      "깃": 1051,
      "깄": 1052,
      "깅": 1053,
      "깆": 1054,
      "깈": 1055,
      "깉": 1056,
      "깊": 1057,
      "까": 1058,
      "깍": 1059,
      "깎": 1060,
      "깐": 1061,
      "깔": 1062,
      "깜": 1063,
      "깝": 1064,
      "깞": 1065,
      "깟": 1066,
      "깠": 1067,
      "깡": 1068,
      "깢": 1069,
      "깤": 1070,
      "깥": 1071,
      "깨": 1072,
      "깩": 1073,
      "깬": 1074,
      "깰": 1075,
      "깸": 1076,
      "깹": 1077,
      "깻": 1078,
      "깼": 1079,
      "깽": 1080,
      "꺄": 1081,
      "꺅": 1082,
      "꺌": 1083,
      "꺠": 1084,
      "꺵": 1085,
      "꺼": 1086,
      "꺽": 1087,
      "꺾": 1088,
      "껀": 1089,
      "껄": 1090,
      "껌": 1091,
      "껍": 1092,
      "껏": 1093,
      "껐": 1094,
      "껑": 1095,
      "껒": 1096,
      "께": 1097,
      "껜": 1098,
      "껨": 1099,
      "껬": 1100,
      "껭": 1101,
      "껴": 1102,
      "껼": 1103,
      "꼅": 1104,
      "꼇": 1105,
      "꼈": 1106,
      "꼐": 1107,
      "꼬": 1108,
      "꼭": 1109,
      "꼰": 1110,
      "꼳": 1111,
      "꼴": 1112,
      "꼼": 1113,
      "꼽": 1114,
      "꼿": 1115,
      "꽁": 1116,
      "꽂": 1117,
      "꽃": 1118,
      "꽅": 1119,
      "꽈": 1120,
      "꽉": 1121,
      "꽊": 1122,
      "꽌": 1123,
      "꽐": 1124,
      "꽝": 1125,
      "꽤": 1126,
      "꽥": 1127,
      "꽹": 1128,
      "꾀": 1129,
      "꾐": 1130,
      "꾜": 1131,
      "꾤": 1132,
      "꾸": 1133,
      "꾹": 1134,
      "꾼": 1135,
      "꾾": 1136,
      "꾿": 1137,
      "꿀": 1138,
      "꿁": 1139,
      "꿇": 1140,
      "꿈": 1141,
      "꿉": 1142,
      "꿋": 1143,
      "꿍": 1144,
      "꿎": 1145,
      "꿏": 1146,
      "꿑": 1147,
      "꿔": 1148,
      "꿘": 1149,
      "꿜": 1150,
      "꿧": 1151,
      "꿨": 1152,
      "꿩": 1153,
      "꿰": 1154,
      "꿱": 1155,
      "뀌": 1156,
      "뀐": 1157,
      "뀔": 1158,
      "뀜": 1159,
      "뀝": 1160,
      "뀠": 1161,
      "뀨": 1162,
      "뀬": 1163,
      "끄": 1164,
      "끅": 1165,
      "끈": 1166,
      "끊": 1167,
      "끋": 1168,
      "끌": 1169,
      "끍": 1170,
      "끓": 1171,
      "끔": 1172,
      "끕": 1173,
      "끗": 1174,
      "끙": 1175,
      "끚": 1176,
      "끝": 1177,
      "끠": 1178,
      "끼": 1179,
      "끽": 1180,
      "낀": 1181,
      "낄": 1182,
      "낌": 1183,
      "낍": 1184,
      "낏": 1185,
      "낑": 1186,
      "낔": 1187,
      "나": 1188,
      "낙": 1189,
      "낚": 1190,
      "난": 1191,
      "낟": 1192,
      "날": 1193,
      "낡": 1194,
      "남": 1195,
      "납": 1196,
      "낫": 1197,
      "났": 1198,
      "낭": 1199,
      "낮": 1200,
      "낯": 1201,
      "낰": 1202,
      "낱": 1203,
      "낲": 1204,
      "낳": 1205,
      "내": 1206,
      "낵": 1207,
      "낸": 1208,
      "낼": 1209,
      "냄": 1210,
      "냅": 1211,
      "냇": 1212,
      "냈": 1213,
      "냉": 1214,
      "냌": 1215,
      "냐": 1216,
      "냑": 1217,
      "냔": 1218,
      "냘": 1219,
      "냠": 1220,
      "냣": 1221,
      "냥": 1222,
      "냨": 1223,
      "냬": 1224,
      "너": 1225,
      "넉": 1226,
      "넋": 1227,
      "넌": 1228,
      "널": 1229,
      "넑": 1230,
      "넒": 1231,
      "넓": 1232,
      "넖": 1233,
      "넘": 1234,
      "넙": 1235,
      "넛": 1236,
      "넜": 1237,
      "넝": 1238,
      "넠": 1239,
      "넢": 1240,
      "넣": 1241,
      "네": 1242,
      "넥": 1243,
      "넨": 1244,
      "넬": 1245,
      "넴": 1246,
      "넵": 1247,
      "넷": 1248,
      "넸": 1249,
      "넹": 1250,
      "넺": 1251,
      "넼": 1252,
      "넿": 1253,
      "녀": 1254,
      "녁": 1255,
      "년": 1256,
      "녈": 1257,
      "념": 1258,
      "녓": 1259,
      "녔": 1260,
      "녕": 1261,
      "녘": 1262,
      "녛": 1263,
      "녜": 1264,
      "노": 1265,
      "녹": 1266,
      "논": 1267,
      "놀": 1268,
      "놈": 1269,
      "놉": 1270,
      "놋": 1271,
      "놌": 1272,
      "농": 1273,
      "놐": 1274,
      "높": 1275,
      "놓": 1276,
      "놔": 1277,
      "놘": 1278,
      "놧": 1279,
      "놨": 1280,
      "놯": 1281,
      "놰": 1282,
      "뇌": 1283,
      "뇐": 1284,
      "뇜": 1285,
      "뇨": 1286,
      "뇬": 1287,
      "뇸": 1288,
      "뇽": 1289,
      "누": 1290,
      "눅": 1291,
      "눈": 1292,
      "눌": 1293,
      "눍": 1294,
      "눔": 1295,
      "눕": 1296,
      "눗": 1297,
      "눙": 1298,
      "눜": 1299,
      "눞": 1300,
      "눟": 1301,
      "눠": 1302,
      "눤": 1303,
      "눴": 1304,
      "눼": 1305,
      "뉘": 1306,
      "뉜": 1307,
      "뉠": 1308,
      "뉨": 1309,
      "뉩": 1310,
      "뉴": 1311,
      "뉸": 1312,
      "늄": 1313,
      "늉": 1314,
      "느": 1315,
      "늑": 1316,
      "는": 1317,
      "늕": 1318,
      "늗": 1319,
      "늘": 1320,
      "늙": 1321,
      "늟": 1322,
      "늠": 1323,
      "늡": 1324,
      "늣": 1325,
      "능": 1326,
      "늦": 1327,
      "늧": 1328,
      "늨": 1329,
      "늪": 1330,
      "늫": 1331,
      "늬": 1332,
      "늼": 1333,
      "니": 1334,
      "닉": 1335,
      "닌": 1336,
      "닏": 1337,
      "닐": 1338,
      "님": 1339,
      "닙": 1340,
      "닛": 1341,
      "닜": 1342,
      "닝": 1343,
      "닞": 1344,
      "닠": 1345,
      "닢": 1346,
      "다": 1347,
      "닥": 1348,
      "닦": 1349,
      "단": 1350,
      "닫": 1351,
      "달": 1352,
      "닭": 1353,
      "닮": 1354,
      "닯": 1355,
      "닳": 1356,
      "담": 1357,
      "답": 1358,
      "닶": 1359,
      "닷": 1360,
      "닸": 1361,
      "당": 1362,
      "닺": 1363,
      "닻": 1364,
      "닼": 1365,
      "닽": 1366,
      "닾": 1367,
      "닿": 1368,
      "대": 1369,
      "댁": 1370,
      "댄": 1371,
      "댇": 1372,
      "댈": 1373,
      "댐": 1374,
      "댑": 1375,
      "댓": 1376,
      "댔": 1377,
      "댕": 1378,
      "댖": 1379,
      "댘": 1380,
      "댜": 1381,
      "댠": 1382,
      "댤": 1383,
      "댯": 1384,
      "댱": 1385,
      "댸": 1386,
      "더": 1387,
      "덕": 1388,
      "던": 1389,
      "덛": 1390,
      "덜": 1391,
      "덟": 1392,
      "덤": 1393,
      "덥": 1394,
      "덧": 1395,
      "덩": 1396,
      "덪": 1397,
      "덫": 1398,
      "덮": 1399,
      "덯": 1400,
      "데": 1401,
      "덱": 1402,
      "덴": 1403,
      "델": 1404,
      "뎀": 1405,
      "뎁": 1406,
      "뎃": 1407,
      "뎄": 1408,
      "뎅": 1409,
      "뎈": 1410,
      "뎌": 1411,
      "뎐": 1412,
      "뎔": 1413,
      "뎠": 1414,
      "뎡": 1415,
      "뎨": 1416,
      "도": 1417,
      "독": 1418,
      "돈": 1419,
      "돋": 1420,
      "돌": 1421,
      "돔": 1422,
      "돕": 1423,
      "돗": 1424,
      "동": 1425,
      "돚": 1426,
      "돛": 1427,
      "돜": 1428,
      "돟": 1429,
      "돠": 1430,
      "돤": 1431,
      "돨": 1432,
      "돴": 1433,
      "돵": 1434,
      "돼": 1435,
      "됀": 1436,
      "됄": 1437,
      "됌": 1438,
      "됍": 1439,
      "됏": 1440,
      "됐": 1441,
      "됑": 1442,
      "되": 1443,
      "됙": 1444,
      "된": 1445,
      "될": 1446,
      "됨": 1447,
      "됩": 1448,
      "됫": 1449,
      "됬": 1450,
      "됭": 1451,
      "됴": 1452,
      "둉": 1453,
      "두": 1454,
      "둑": 1455,
      "둔": 1456,
      "둗": 1457,
      "둘": 1458,
      "둠": 1459,
      "둡": 1460,
      "둣": 1461,
      "둥": 1462,
      "둬": 1463,
      "둰": 1464,
      "둿": 1465,
      "뒀": 1466,
      "뒈": 1467,
      "뒤": 1468,
      "뒨": 1469,
      "뒬": 1470,
      "뒷": 1471,
      "뒸": 1472,
      "뒹": 1473,
      "듀": 1474,
      "듁": 1475,
      "듄": 1476,
      "듈": 1477,
      "듕": 1478,
      "드": 1479,
      "득": 1480,
      "든": 1481,
      "듣": 1482,
      "들": 1483,
      "듥": 1484,
      "듦": 1485,
      "듫": 1486,
      "듬": 1487,
      "듭": 1488,
      "듯": 1489,
      "등": 1490,
      "듲": 1491,
      "듵": 1492,
      "듷": 1493,
      "듸": 1494,
      "듼": 1495,
      "딋": 1496,
      "딍": 1497,
      "디": 1498,
      "딕": 1499,
      "딘": 1500,
      "딛": 1501,
      "딜": 1502,
      "딤": 1503,
      "딥": 1504,
      "딧": 1505,
      "딨": 1506,
      "딩": 1507,
      "딪": 1508,
      "딫": 1509,
      "따": 1510,
      "딱": 1511,
      "딲": 1512,
      "딴": 1513,
      "딸": 1514,
      "딹": 1515,
      "땀": 1516,
      "땁": 1517,
      "땃": 1518,
      "땄": 1519,
      "땅": 1520,
      "땈": 1521,
      "땋": 1522,
      "때": 1523,
      "땍": 1524,
      "땐": 1525,
      "땔": 1526,
      "땜": 1527,
      "땝": 1528,
      "땟": 1529,
      "땠": 1530,
      "땡": 1531,
      "땨": 1532,
      "땩": 1533,
      "떄": 1534,
      "떈": 1535,
      "떔": 1536,
      "떙": 1537,
      "떠": 1538,
      "떡": 1539,
      "떢": 1540,
      "떤": 1541,
      "떧": 1542,
      "떨": 1543,
      "떫": 1544,
      "떰": 1545,
      "떱": 1546,
      "떳": 1547,
      "떴": 1548,
      "떵": 1549,
      "떻": 1550,
      "떼": 1551,
      "떽": 1552,
      "뗀": 1553,
      "뗄": 1554,
      "뗌": 1555,
      "뗏": 1556,
      "뗐": 1557,
      "뗑": 1558,
      "뗘": 1559,
      "뗴": 1560,
      "또": 1561,
      "똑": 1562,
      "똒": 1563,
      "똔": 1564,
      "똘": 1565,
      "똠": 1566,
      "똥": 1567,
      "똫": 1568,
      "똬": 1569,
      "똭": 1570,
      "뙇": 1571,
      "뙈": 1572,
      "뙤": 1573,
      "뙨": 1574,
      "뚕": 1575,
      "뚜": 1576,
      "뚝": 1577,
      "뚠": 1578,
      "뚤": 1579,
      "뚫": 1580,
      "뚯": 1581,
      "뚱": 1582,
      "뚸": 1583,
      "뛔": 1584,
      "뛰": 1585,
      "뛴": 1586,
      "뛸": 1587,
      "뜀": 1588,
      "뜁": 1589,
      "뜨": 1590,
      "뜩": 1591,
      "뜬": 1592,
      "뜯": 1593,
      "뜰": 1594,
      "뜷": 1595,
      "뜸": 1596,
      "뜹": 1597,
      "뜻": 1598,
      "뜽": 1599,
      "뜾": 1600,
      "띁": 1601,
      "띄": 1602,
      "띈": 1603,
      "띌": 1604,
      "띠": 1605,
      "띡": 1606,
      "띤": 1607,
      "띨": 1608,
      "띰": 1609,
      "띱": 1610,
      "띵": 1611,
      "라": 1612,
      "락": 1613,
      "란": 1614,
      "랃": 1615,
      "랄": 1616,
      "람": 1617,
      "랍": 1618,
      "랏": 1619,
      "랐": 1620,
      "랑": 1621,
      "랒": 1622,
      "랔": 1623,
      "랖": 1624,
      "랗": 1625,
      "래": 1626,
      "랙": 1627,
      "랜": 1628,
      "랠": 1629,
      "램": 1630,
      "랩": 1631,
      "랫": 1632,
      "랬": 1633,
      "랭": 1634,
      "랰": 1635,
      "랳": 1636,
      "랴": 1637,
      "략": 1638,
      "랸": 1639,
      "랼": 1640,
      "럄": 1641,
      "럈": 1642,
      "량": 1643,
      "럐": 1644,
      "러": 1645,
      "럭": 1646,
      "런": 1647,
      "럲": 1648,
      "럴": 1649,
      "럼": 1650,
      "럽": 1651,
      "럾": 1652,
      "럿": 1653,
      "렀": 1654,
      "렁": 1655,
      "렂": 1656,
      "렆": 1657,
      "렇": 1658,
      "레": 1659,
      "렉": 1660,
      "렌": 1661,
      "렐": 1662,
      "렘": 1663,
      "렙": 1664,
      "렛": 1665,
      "렜": 1666,
      "렝": 1667,
      "렠": 1668,
      "렣": 1669,
      "려": 1670,
      "력": 1671,
      "련": 1672,
      "렬": 1673,
      "렴": 1674,
      "렵": 1675,
      "렷": 1676,
      "렸": 1677,
      "령": 1678,
      "렼": 1679,
      "렿": 1680,
      "례": 1681,
      "롄": 1682,
      "로": 1683,
      "록": 1684,
      "론": 1685,
      "롤": 1686,
      "롬": 1687,
      "롭": 1688,
      "롯": 1689,
      "롱": 1690,
      "롲": 1691,
      "롴": 1692,
      "롷": 1693,
      "롸": 1694,
      "롹": 1695,
      "롼": 1696,
      "뢀": 1697,
      "뢈": 1698,
      "뢍": 1699,
      "뢔": 1700,
      "뢰": 1701,
      "료": 1702,
      "룐": 1703,
      "룔": 1704,
      "룡": 1705,
      "루": 1706,
      "룩": 1707,
      "룬": 1708,
      "룰": 1709,
      "룸": 1710,
      "룹": 1711,
      "룻": 1712,
      "룽": 1713,
      "뤄": 1714,
      "뤈": 1715,
      "뤌": 1716,
      "뤗": 1717,
      "뤘": 1718,
      "뤠": 1719,
      "뤡": 1720,
      "뤼": 1721,
      "뤽": 1722,
      "류": 1723,
      "륙": 1724,
      "륜": 1725,
      "률": 1726,
      "륨": 1727,
      "륭": 1728,
      "르": 1729,
      "륵": 1730,
      "른": 1731,
      "를": 1732,
      "름": 1733,
      "릅": 1734,
      "릇": 1735,
      "릉": 1736,
      "릍": 1737,
      "릎": 1738,
      "릏": 1739,
      "릐": 1740,
      "리": 1741,
      "릭": 1742,
      "린": 1743,
      "릴": 1744,
      "림": 1745,
      "립": 1746,
      "릿": 1747,
      "맀": 1748,
      "링": 1749,
      "맂": 1750,
      "맄": 1751,
      "맆": 1752,
      "맇": 1753,
      "마": 1754,
      "막": 1755,
      "맊": 1756,
      "만": 1757,
      "맍": 1758,
      "많": 1759,
      "맏": 1760,
      "말": 1761,
      "맑": 1762,
      "맗": 1763,
      "맘": 1764,
      "맙": 1765,
      "맛": 1766,
      "맜": 1767,
      "망": 1768,
      "맞": 1769,
      "맟": 1770,
      "맠": 1771,
      "맡": 1772,
      "맣": 1773,
      "매": 1774,
      "맥": 1775,
      "맨": 1776,
      "맬": 1777,
      "맴": 1778,
      "맵": 1779,
      "맷": 1780,
      "맸": 1781,
      "맹": 1782,
      "맺": 1783,
      "먀": 1784,
      "먁": 1785,
      "먄": 1786,
      "먆": 1787,
      "먈": 1788,
      "먕": 1789,
      "먜": 1790,
      "머": 1791,
      "먹": 1792,
      "먼": 1793,
      "먾": 1794,
      "먿": 1795,
      "멀": 1796,
      "멈": 1797,
      "멉": 1798,
      "멊": 1799,
      "멋": 1800,
      "멌": 1801,
      "멍": 1802,
      "멎": 1803,
      "멏": 1804,
      "멓": 1805,
      "메": 1806,
      "멕": 1807,
      "멘": 1808,
      "멜": 1809,
      "멤": 1810,
      "멧": 1811,
      "멨": 1812,
      "멩": 1813,
      "며": 1814,
      "멱": 1815,
      "면": 1816,
      "멸": 1817,
      "몀": 1818,
      "몃": 1819,
      "몄": 1820,
      "명": 1821,
      "몆": 1822,
      "몇": 1823,
      "몈": 1824,
      "몌": 1825,
      "몐": 1826,
      "모": 1827,
      "목": 1828,
      "몪": 1829,
      "몫": 1830,
      "몬": 1831,
      "몯": 1832,
      "몰": 1833,
      "몸": 1834,
      "몹": 1835,
      "못": 1836,
      "몼": 1837,
      "몽": 1838,
      "몾": 1839,
      "몿": 1840,
      "뫃": 1841,
      "뫄": 1842,
      "뫈": 1843,
      "뫙": 1844,
      "뫠": 1845,
      "뫼": 1846,
      "묘": 1847,
      "묙": 1848,
      "묜": 1849,
      "묫": 1850,
      "묭": 1851,
      "무": 1852,
      "묵": 1853,
      "묶": 1854,
      "문": 1855,
      "묹": 1856,
      "묻": 1857,
      "물": 1858,
      "묽": 1859,
      "뭄": 1860,
      "뭅": 1861,
      "뭇": 1862,
      "뭉": 1863,
      "뭌": 1864,
      "뭍": 1865,
      "뭏": 1866,
      "뭐": 1867,
      "뭔": 1868,
      "뭘": 1869,
      "뭠": 1870,
      "뭡": 1871,
      "뭣": 1872,
      "뭤": 1873,
      "뭥": 1874,
      "뭨": 1875,
      "뭬": 1876,
      "뮈": 1877,
      "뮌": 1878,
      "뮐": 1879,
      "뮙": 1880,
      "뮛": 1881,
      "뮤": 1882,
      "뮨": 1883,
      "뮬": 1884,
      "뮹": 1885,
      "므": 1886,
      "믁": 1887,
      "믄": 1888,
      "믇": 1889,
      "믈": 1890,
      "믐": 1891,
      "믓": 1892,
      "믕": 1893,
      "믜": 1894,
      "미": 1895,
      "믹": 1896,
      "민": 1897,
      "믽": 1898,
      "믾": 1899,
      "믿": 1900,
      "밀": 1901,
      "밈": 1902,
      "밉": 1903,
      "밋": 1904,
      "밌": 1905,
      "밍": 1906,
      "밎": 1907,
      "및": 1908,
      "밐": 1909,
      "밑": 1910,
      "바": 1911,
      "박": 1912,
      "밖": 1913,
      "반": 1914,
      "받": 1915,
      "발": 1916,
      "밝": 1917,
      "밞": 1918,
      "밟": 1919,
      "밢": 1920,
      "밣": 1921,
      "밤": 1922,
      "밥": 1923,
      "밦": 1924,
      "밧": 1925,
      "밨": 1926,
      "방": 1927,
      "밪": 1928,
      "밬": 1929,
      "밭": 1930,
      "밯": 1931,
      "배": 1932,
      "백": 1933,
      "밴": 1934,
      "밷": 1935,
      "밸": 1936,
      "뱀": 1937,
      "뱁": 1938,
      "뱃": 1939,
      "뱄": 1940,
      "뱅": 1941,
      "뱉": 1942,
      "뱌": 1943,
      "뱍": 1944,
      "뱐": 1945,
      "뱓": 1946,
      "뱔": 1947,
      "뱜": 1948,
      "뱡": 1949,
      "뱩": 1950,
      "버": 1951,
      "벅": 1952,
      "번": 1953,
      "벋": 1954,
      "벌": 1955,
      "벍": 1956,
      "범": 1957,
      "법": 1958,
      "벗": 1959,
      "벙": 1960,
      "벚": 1961,
      "벞": 1962,
      "베": 1963,
      "벡": 1964,
      "벤": 1965,
      "벧": 1966,
      "벨": 1967,
      "벱": 1968,
      "벳": 1969,
      "벵": 1970,
      "벹": 1971,
      "벼": 1972,
      "벽": 1973,
      "변": 1974,
      "별": 1975,
      "볌": 1976,
      "볍": 1977,
      "볏": 1978,
      "볐": 1979,
      "병": 1980,
      "볓": 1981,
      "볔": 1982,
      "볕": 1983,
      "볗": 1984,
      "볘": 1985,
      "보": 1986,
      "복": 1987,
      "볶": 1988,
      "본": 1989,
      "볻": 1990,
      "볼": 1991,
      "봄": 1992,
      "봅": 1993,
      "봇": 1994,
      "봉": 1995,
      "봊": 1996,
      "봌": 1997,
      "봍": 1998,
      "봐": 1999,
      "봔": 2000,
      "봘": 2001,
      "봣": 2002,
      "봤": 2003,
      "봥": 2004,
      "봨": 2005,
      "봬": 2006,
      "뵈": 2007,
      "뵌": 2008,
      "뵐": 2009,
      "뵙": 2010,
      "뵜": 2011,
      "뵤": 2012,
      "뵨": 2013,
      "뵹": 2014,
      "부": 2015,
      "북": 2016,
      "붂": 2017,
      "분": 2018,
      "붇": 2019,
      "불": 2020,
      "붉": 2021,
      "붏": 2022,
      "붐": 2023,
      "붑": 2024,
      "붓": 2025,
      "붕": 2026,
      "붖": 2027,
      "붘": 2028,
      "붙": 2029,
      "붛": 2030,
      "붜": 2031,
      "붠": 2032,
      "붤": 2033,
      "붱": 2034,
      "붸": 2035,
      "뷁": 2036,
      "뷔": 2037,
      "뷩": 2038,
      "뷰": 2039,
      "뷱": 2040,
      "뷴": 2041,
      "뷸": 2042,
      "븅": 2043,
      "브": 2044,
      "븍": 2045,
      "븐": 2046,
      "블": 2047,
      "븜": 2048,
      "븡": 2049,
      "븥": 2050,
      "븨": 2051,
      "븽": 2052,
      "비": 2053,
      "빅": 2054,
      "빆": 2055,
      "빈": 2056,
      "빋": 2057,
      "빌": 2058,
      "빍": 2059,
      "빔": 2060,
      "빕": 2061,
      "빗": 2062,
      "빙": 2063,
      "빚": 2064,
      "빛": 2065,
      "빠": 2066,
      "빡": 2067,
      "빢": 2068,
      "빤": 2069,
      "빧": 2070,
      "빨": 2071,
      "빩": 2072,
      "빰": 2073,
      "빱": 2074,
      "빳": 2075,
      "빴": 2076,
      "빵": 2077,
      "빻": 2078,
      "빼": 2079,
      "빽": 2080,
      "뺀": 2081,
      "뺃": 2082,
      "뺄": 2083,
      "뺌": 2084,
      "뺍": 2085,
      "뺏": 2086,
      "뺐": 2087,
      "뺑": 2088,
      "뺒": 2089,
      "뺕": 2090,
      "뺘": 2091,
      "뺠": 2092,
      "뺨": 2093,
      "뺴": 2094,
      "뺵": 2095,
      "뻇": 2096,
      "뻐": 2097,
      "뻑": 2098,
      "뻔": 2099,
      "뻗": 2100,
      "뻘": 2101,
      "뻠": 2102,
      "뻡": 2103,
      "뻣": 2104,
      "뻤": 2105,
      "뻥": 2106,
      "뻬": 2107,
      "뻰": 2108,
      "뻴": 2109,
      "뻿": 2110,
      "뼈": 2111,
      "뼉": 2112,
      "뼌": 2113,
      "뼘": 2114,
      "뼛": 2115,
      "뼝": 2116,
      "뼤": 2117,
      "뽀": 2118,
      "뽁": 2119,
      "뽂": 2120,
      "뽄": 2121,
      "뽈": 2122,
      "뽐": 2123,
      "뽑": 2124,
      "뽕": 2125,
      "뽚": 2126,
      "뽜": 2127,
      "뽝": 2128,
      "뽤": 2129,
      "뾰": 2130,
      "뿅": 2131,
      "뿌": 2132,
      "뿍": 2133,
      "뿐": 2134,
      "뿔": 2135,
      "뿜": 2136,
      "뿝": 2137,
      "뿟": 2138,
      "뿡": 2139,
      "쀼": 2140,
      "쁀": 2141,
      "쁑": 2142,
      "쁘": 2143,
      "쁜": 2144,
      "쁠": 2145,
      "쁨": 2146,
      "쁩": 2147,
      "삐": 2148,
      "삑": 2149,
      "삔": 2150,
      "삘": 2151,
      "삣": 2152,
      "삥": 2153,
      "사": 2154,
      "삭": 2155,
      "삮": 2156,
      "삯": 2157,
      "산": 2158,
      "살": 2159,
      "삵": 2160,
      "삶": 2161,
      "삷": 2162,
      "삻": 2163,
      "삼": 2164,
      "삽": 2165,
      "삿": 2166,
      "샀": 2167,
      "상": 2168,
      "샂": 2169,
      "샄": 2170,
      "샅": 2171,
      "샆": 2172,
      "샇": 2173,
      "새": 2174,
      "색": 2175,
      "샊": 2176,
      "샋": 2177,
      "샌": 2178,
      "샏": 2179,
      "샐": 2180,
      "샘": 2181,
      "샙": 2182,
      "샛": 2183,
      "샜": 2184,
      "생": 2185,
      "샠": 2186,
      "샡": 2187,
      "샣": 2188,
      "샤": 2189,
      "샥": 2190,
      "샨": 2191,
      "샬": 2192,
      "샴": 2193,
      "샵": 2194,
      "샷": 2195,
      "샸": 2196,
      "샹": 2197,
      "샾": 2198,
      "섀": 2199,
      "섁": 2200,
      "섕": 2201,
      "섘": 2202,
      "서": 2203,
      "석": 2204,
      "섞": 2205,
      "선": 2206,
      "섣": 2207,
      "설": 2208,
      "섥": 2209,
      "섬": 2210,
      "섭": 2211,
      "섮": 2212,
      "섯": 2213,
      "섰": 2214,
      "성": 2215,
      "섲": 2216,
      "섴": 2217,
      "섶": 2218,
      "세": 2219,
      "섹": 2220,
      "섺": 2221,
      "센": 2222,
      "셀": 2223,
      "셈": 2224,
      "셉": 2225,
      "셋": 2226,
      "셌": 2227,
      "셍": 2228,
      "셐": 2229,
      "셑": 2230,
      "셓": 2231,
      "셔": 2232,
      "셕": 2233,
      "션": 2234,
      "셜": 2235,
      "셤": 2236,
      "셥": 2237,
      "셧": 2238,
      "셨": 2239,
      "셩": 2240,
      "셯": 2241,
      "셰": 2242,
      "셱": 2243,
      "셴": 2244,
      "셸": 2245,
      "소": 2246,
      "속": 2247,
      "솎": 2248,
      "손": 2249,
      "솓": 2250,
      "솔": 2251,
      "솜": 2252,
      "솝": 2253,
      "솟": 2254,
      "송": 2255,
      "솤": 2256,
      "솥": 2257,
      "솨": 2258,
      "솬": 2259,
      "솰": 2260,
      "솼": 2261,
      "솽": 2262,
      "쇄": 2263,
      "쇅": 2264,
      "쇆": 2265,
      "쇗": 2266,
      "쇜": 2267,
      "쇠": 2268,
      "쇡": 2269,
      "쇳": 2270,
      "쇼": 2271,
      "쇽": 2272,
      "숀": 2273,
      "숄": 2274,
      "숍": 2275,
      "숏": 2276,
      "숑": 2277,
      "숖": 2278,
      "수": 2279,
      "숙": 2280,
      "순": 2281,
      "숟": 2282,
      "술": 2283,
      "숨": 2284,
      "숩": 2285,
      "숫": 2286,
      "숭": 2287,
      "숮": 2288,
      "숯": 2289,
      "숱": 2290,
      "숲": 2291,
      "숴": 2292,
      "숵": 2293,
      "숸": 2294,
      "숼": 2295,
      "쉅": 2296,
      "쉈": 2297,
      "쉐": 2298,
      "쉑": 2299,
      "쉒": 2300,
      "쉔": 2301,
      "쉘": 2302,
      "쉣": 2303,
      "쉥": 2304,
      "쉨": 2305,
      "쉬": 2306,
      "쉭": 2307,
      "쉰": 2308,
      "쉴": 2309,
      "쉼": 2310,
      "쉽": 2311,
      "쉿": 2312,
      "슁": 2313,
      "슆": 2314,
      "슈": 2315,
      "슉": 2316,
      "슌": 2317,
      "슐": 2318,
      "슘": 2319,
      "슙": 2320,
      "슛": 2321,
      "슝": 2322,
      "스": 2323,
      "슥": 2324,
      "슨": 2325,
      "슬": 2326,
      "슭": 2327,
      "슴": 2328,
      "습": 2329,
      "슷": 2330,
      "승": 2331,
      "슼": 2332,
      "슾": 2333,
      "싀": 2334,
      "싁": 2335,
      "싄": 2336,
      "싈": 2337,
      "싑": 2338,
      "시": 2339,
      "식": 2340,
      "싞": 2341,
      "신": 2342,
      "싡": 2343,
      "싢": 2344,
      "싣": 2345,
      "실": 2346,
      "싦": 2347,
      "싨": 2348,
      "싫": 2349,
      "심": 2350,
      "십": 2351,
      "싮": 2352,
      "싯": 2353,
      "싰": 2354,
      "싱": 2355,
      "싲": 2356,
      "싴": 2357,
      "싶": 2358,
      "싷": 2359,
      "싸": 2360,
      "싹": 2361,
      "싺": 2362,
      "싼": 2363,
      "쌀": 2364,
      "쌂": 2365,
      "쌈": 2366,
      "쌉": 2367,
      "쌋": 2368,
      "쌌": 2369,
      "쌍": 2370,
      "쌓": 2371,
      "쌔": 2372,
      "쌕": 2373,
      "쌖": 2374,
      "쌘": 2375,
      "쌤": 2376,
      "쌥": 2377,
      "쌧": 2378,
      "쌨": 2379,
      "쌩": 2380,
      "쌬": 2381,
      "쌰": 2382,
      "썁": 2383,
      "썅": 2384,
      "썌": 2385,
      "썡": 2386,
      "써": 2387,
      "썩": 2388,
      "썪": 2389,
      "썬": 2390,
      "썰": 2391,
      "썸": 2392,
      "썹": 2393,
      "썻": 2394,
      "썼": 2395,
      "썽": 2396,
      "쎀": 2397,
      "쎄": 2398,
      "쎅": 2399,
      "쎆": 2400,
      "쎈": 2401,
      "쎌": 2402,
      "쎔": 2403,
      "쎗": 2404,
      "쎘": 2405,
      "쎜": 2406,
      "쎠": 2407,
      "쎴": 2408,
      "쎼": 2409,
      "쏘": 2410,
      "쏙": 2411,
      "쏜": 2412,
      "쏟": 2413,
      "쏠": 2414,
      "쏨": 2415,
      "쏩": 2416,
      "쏫": 2417,
      "쏭": 2418,
      "쏱": 2419,
      "쏴": 2420,
      "쏵": 2421,
      "쏼": 2422,
      "쐇": 2423,
      "쐈": 2424,
      "쐉": 2425,
      "쐐": 2426,
      "쐑": 2427,
      "쐨": 2428,
      "쐬": 2429,
      "쑈": 2430,
      "쑝": 2431,
      "쑤": 2432,
      "쑥": 2433,
      "쑨": 2434,
      "쑬": 2435,
      "쑴": 2436,
      "쑵": 2437,
      "쑹": 2438,
      "쒀": 2439,
      "쒜": 2440,
      "쒝": 2441,
      "쒞": 2442,
      "쒸": 2443,
      "쒹": 2444,
      "쒼": 2445,
      "쓉": 2446,
      "쓔": 2447,
      "쓥": 2448,
      "쓰": 2449,
      "쓱": 2450,
      "쓴": 2451,
      "쓸": 2452,
      "씀": 2453,
      "씁": 2454,
      "씅": 2455,
      "씌": 2456,
      "씐": 2457,
      "씝": 2458,
      "씨": 2459,
      "씩": 2460,
      "씬": 2461,
      "씰": 2462,
      "씸": 2463,
      "씹": 2464,
      "씻": 2465,
      "씼": 2466,
      "씽": 2467,
      "앂": 2468,
      "아": 2469,
      "악": 2470,
      "안": 2471,
      "앉": 2472,
      "않": 2473,
      "앋": 2474,
      "알": 2475,
      "앍": 2476,
      "앎": 2477,
      "앏": 2478,
      "앓": 2479,
      "암": 2480,
      "압": 2481,
      "앖": 2482,
      "앗": 2483,
      "았": 2484,
      "앙": 2485,
      "앚": 2486,
      "앜": 2487,
      "앝": 2488,
      "앞": 2489,
      "앟": 2490,
      "애": 2491,
      "액": 2492,
      "앤": 2493,
      "앨": 2494,
      "앰": 2495,
      "앱": 2496,
      "앳": 2497,
      "앴": 2498,
      "앵": 2499,
      "야": 2500,
      "약": 2501,
      "얀": 2502,
      "얂": 2503,
      "얃": 2504,
      "얄": 2505,
      "얇": 2506,
      "얌": 2507,
      "얍": 2508,
      "얏": 2509,
      "얐": 2510,
      "양": 2511,
      "얒": 2512,
      "얔": 2513,
      "얕": 2514,
      "얖": 2515,
      "얗": 2516,
      "얘": 2517,
      "얙": 2518,
      "얜": 2519,
      "얨": 2520,
      "어": 2521,
      "억": 2522,
      "얶": 2523,
      "얷": 2524,
      "언": 2525,
      "얹": 2526,
      "얺": 2527,
      "얻": 2528,
      "얼": 2529,
      "얽": 2530,
      "엄": 2531,
      "업": 2532,
      "없": 2533,
      "엇": 2534,
      "었": 2535,
      "엉": 2536,
      "엊": 2537,
      "엌": 2538,
      "엎": 2539,
      "엏": 2540,
      "에": 2541,
      "엑": 2542,
      "엔": 2543,
      "엘": 2544,
      "엠": 2545,
      "엡": 2546,
      "엣": 2547,
      "엤": 2548,
      "엥": 2549,
      "엨": 2550,
      "엪": 2551,
      "여": 2552,
      "역": 2553,
      "엮": 2554,
      "연": 2555,
      "엳": 2556,
      "열": 2557,
      "염": 2558,
      "엽": 2559,
      "엾": 2560,
      "엿": 2561,
      "였": 2562,
      "영": 2563,
      "옃": 2564,
      "옄": 2565,
      "옅": 2566,
      "옆": 2567,
      "옇": 2568,
      "예": 2569,
      "옌": 2570,
      "옐": 2571,
      "옘": 2572,
      "옙": 2573,
      "옛": 2574,
      "옜": 2575,
      "오": 2576,
      "옥": 2577,
      "온": 2578,
      "옪": 2579,
      "옫": 2580,
      "올": 2581,
      "옭": 2582,
      "옮": 2583,
      "옯": 2584,
      "옰": 2585,
      "옳": 2586,
      "옴": 2587,
      "옵": 2588,
      "옶": 2589,
      "옷": 2590,
      "옸": 2591,
      "옹": 2592,
      "옺": 2593,
      "옼": 2594,
      "옿": 2595,
      "와": 2596,
      "왁": 2597,
      "완": 2598,
      "왈": 2599,
      "왐": 2600,
      "왑": 2601,
      "왓": 2602,
      "왔": 2603,
      "왕": 2604,
      "왘": 2605,
      "왛": 2606,
      "왜": 2607,
      "왝": 2608,
      "왠": 2609,
      "왤": 2610,
      "왱": 2611,
      "외": 2612,
      "왼": 2613,
      "욀": 2614,
      "욌": 2615,
      "욍": 2616,
      "요": 2617,
      "욕": 2618,
      "욘": 2619,
      "욜": 2620,
      "욤": 2621,
      "욥": 2622,
      "욧": 2623,
      "용": 2624,
      "욪": 2625,
      "욬": 2626,
      "우": 2627,
      "욱": 2628,
      "운": 2629,
      "욷": 2630,
      "울": 2631,
      "욹": 2632,
      "움": 2633,
      "웁": 2634,
      "웃": 2635,
      "웅": 2636,
      "웈": 2637,
      "웋": 2638,
      "워": 2639,
      "웍": 2640,
      "원": 2641,
      "월": 2642,
      "웜": 2643,
      "웝": 2644,
      "웟": 2645,
      "웠": 2646,
      "웡": 2647,
      "웤": 2648,
      "웨": 2649,
      "웩": 2650,
      "웬": 2651,
      "웰": 2652,
      "웸": 2653,
      "웹": 2654,
      "웽": 2655,
      "윀": 2656,
      "위": 2657,
      "윅": 2658,
      "윈": 2659,
      "윌": 2660,
      "윔": 2661,
      "윕": 2662,
      "윗": 2663,
      "윘": 2664,
      "윙": 2665,
      "유": 2666,
      "육": 2667,
      "윤": 2668,
      "율": 2669,
      "윰": 2670,
      "윳": 2671,
      "융": 2672,
      "으": 2673,
      "윽": 2674,
      "윾": 2675,
      "은": 2676,
      "읁": 2677,
      "읃": 2678,
      "을": 2679,
      "읅": 2680,
      "읆": 2681,
      "읇": 2682,
      "읉": 2683,
      "읊": 2684,
      "읋": 2685,
      "음": 2686,
      "읍": 2687,
      "읎": 2688,
      "읏": 2689,
      "응": 2690,
      "읔": 2691,
      "읕": 2692,
      "읖": 2693,
      "읗": 2694,
      "의": 2695,
      "읜": 2696,
      "읠": 2697,
      "읫": 2698,
      "읭": 2699,
      "이": 2700,
      "익": 2701,
      "읶": 2702,
      "인": 2703,
      "읹": 2704,
      "읺": 2705,
      "읻": 2706,
      "일": 2707,
      "읽": 2708,
      "읿": 2709,
      "잀": 2710,
      "잃": 2711,
      "임": 2712,
      "입": 2713,
      "잆": 2714,
      "잇": 2715,
      "있": 2716,
      "잉": 2717,
      "잊": 2718,
      "잋": 2719,
      "잌": 2720,
      "잍": 2721,
      "잎": 2722,
      "잏": 2723,
      "자": 2724,
      "작": 2725,
      "잔": 2726,
      "잖": 2727,
      "잗": 2728,
      "잘": 2729,
      "잚": 2730,
      "잛": 2731,
      "잟": 2732,
      "잠": 2733,
      "잡": 2734,
      "잣": 2735,
      "잤": 2736,
      "장": 2737,
      "잦": 2738,
      "잨": 2739,
      "잩": 2740,
      "잪": 2741,
      "잫": 2742,
      "재": 2743,
      "잭": 2744,
      "잰": 2745,
      "잴": 2746,
      "잼": 2747,
      "잽": 2748,
      "잿": 2749,
      "쟀": 2750,
      "쟁": 2751,
      "쟈": 2752,
      "쟉": 2753,
      "쟌": 2754,
      "쟎": 2755,
      "쟐": 2756,
      "쟘": 2757,
      "쟙": 2758,
      "쟛": 2759,
      "쟜": 2760,
      "쟝": 2761,
      "쟤": 2762,
      "쟨": 2763,
      "저": 2764,
      "적": 2765,
      "전": 2766,
      "젅": 2767,
      "젆": 2768,
      "젇": 2769,
      "절": 2770,
      "젊": 2771,
      "젋": 2772,
      "젏": 2773,
      "점": 2774,
      "접": 2775,
      "젓": 2776,
      "젔": 2777,
      "정": 2778,
      "젖": 2779,
      "젗": 2780,
      "젙": 2781,
      "젛": 2782,
      "제": 2783,
      "젝": 2784,
      "젠": 2785,
      "젤": 2786,
      "젬": 2787,
      "젭": 2788,
      "젯": 2789,
      "젰": 2790,
      "젱": 2791,
      "젴": 2792,
      "져": 2793,
      "젹": 2794,
      "젼": 2795,
      "졀": 2796,
      "졉": 2797,
      "졋": 2798,
      "졌": 2799,
      "졍": 2800,
      "졎": 2801,
      "졓": 2802,
      "졔": 2803,
      "졘": 2804,
      "조": 2805,
      "족": 2806,
      "존": 2807,
      "졷": 2808,
      "졸": 2809,
      "좀": 2810,
      "좁": 2811,
      "좃": 2812,
      "좄": 2813,
      "종": 2814,
      "좆": 2815,
      "좇": 2816,
      "좈": 2817,
      "좉": 2818,
      "좋": 2819,
      "좌": 2820,
      "좍": 2821,
      "좔": 2822,
      "좝": 2823,
      "좟": 2824,
      "좡": 2825,
      "좢": 2826,
      "좨": 2827,
      "죄": 2828,
      "죈": 2829,
      "죌": 2830,
      "죕": 2831,
      "죗": 2832,
      "죙": 2833,
      "죠": 2834,
      "죡": 2835,
      "죤": 2836,
      "죧": 2837,
      "죨": 2838,
      "죰": 2839,
      "죳": 2840,
      "죴": 2841,
      "죵": 2842,
      "죷": 2843,
      "죸": 2844,
      "죹": 2845,
      "죻": 2846,
      "주": 2847,
      "죽": 2848,
      "준": 2849,
      "줃": 2850,
      "줄": 2851,
      "줌": 2852,
      "줍": 2853,
      "줏": 2854,
      "중": 2855,
      "줒": 2856,
      "줔": 2857,
      "줗": 2858,
      "줘": 2859,
      "줙": 2860,
      "줜": 2861,
      "줠": 2862,
      "줫": 2863,
      "줬": 2864,
      "줭": 2865,
      "줮": 2866,
      "줱": 2867,
      "줴": 2868,
      "줸": 2869,
      "쥐": 2870,
      "쥑": 2871,
      "쥔": 2872,
      "쥘": 2873,
      "쥣": 2874,
      "쥤": 2875,
      "쥥": 2876,
      "쥬": 2877,
      "쥭": 2878,
      "쥰": 2879,
      "쥴": 2880,
      "쥼": 2881,
      "즁": 2882,
      "즈": 2883,
      "즉": 2884,
      "즌": 2885,
      "즐": 2886,
      "즘": 2887,
      "즙": 2888,
      "즛": 2889,
      "증": 2890,
      "즞": 2891,
      "즤": 2892,
      "즥": 2893,
      "즨": 2894,
      "즬": 2895,
      "즹": 2896,
      "지": 2897,
      "직": 2898,
      "진": 2899,
      "짆": 2900,
      "짇": 2901,
      "질": 2902,
      "짊": 2903,
      "짋": 2904,
      "짐": 2905,
      "집": 2906,
      "짒": 2907,
      "짓": 2908,
      "짔": 2909,
      "징": 2910,
      "짖": 2911,
      "짗": 2912,
      "짘": 2913,
      "짙": 2914,
      "짚": 2915,
      "짛": 2916,
      "짜": 2917,
      "짝": 2918,
      "짠": 2919,
      "짢": 2920,
      "짤": 2921,
      "짦": 2922,
      "짧": 2923,
      "짪": 2924,
      "짬": 2925,
      "짭": 2926,
      "짯": 2927,
      "짰": 2928,
      "짱": 2929,
      "짲": 2930,
      "짴": 2931,
      "째": 2932,
      "짹": 2933,
      "짼": 2934,
      "쨀": 2935,
      "쨈": 2936,
      "쨉": 2937,
      "쨋": 2938,
      "쨌": 2939,
      "쨍": 2940,
      "쨎": 2941,
      "쨓": 2942,
      "쨔": 2943,
      "쨘": 2944,
      "쨩": 2945,
      "쨰": 2946,
      "쩌": 2947,
      "쩍": 2948,
      "쩐": 2949,
      "쩔": 2950,
      "쩜": 2951,
      "쩝": 2952,
      "쩟": 2953,
      "쩠": 2954,
      "쩡": 2955,
      "쩧": 2956,
      "쩨": 2957,
      "쪄": 2958,
      "쪈": 2959,
      "쪌": 2960,
      "쪕": 2961,
      "쪘": 2962,
      "쪙": 2963,
      "쪼": 2964,
      "쪽": 2965,
      "쪾": 2966,
      "쫀": 2967,
      "쫄": 2968,
      "쫌": 2969,
      "쫍": 2970,
      "쫏": 2971,
      "쫐": 2972,
      "쫑": 2973,
      "쫒": 2974,
      "쫓": 2975,
      "쫗": 2976,
      "쫘": 2977,
      "쫙": 2978,
      "쫩": 2979,
      "쫭": 2980,
      "쬐": 2981,
      "쬠": 2982,
      "쬬": 2983,
      "쬭": 2984,
      "쭈": 2985,
      "쭉": 2986,
      "쭌": 2987,
      "쭐": 2988,
      "쭘": 2989,
      "쭙": 2990,
      "쭛": 2991,
      "쭝": 2992,
      "쭤": 2993,
      "쭵": 2994,
      "쮜": 2995,
      "쮸": 2996,
      "쯀": 2997,
      "쯍": 2998,
      "쯔": 2999,
      "쯕": 3000,
      "쯤": 3001,
      "쯥": 3002,
      "쯧": 3003,
      "쯩": 3004,
      "쯪": 3005,
      "쯫": 3006,
      "찌": 3007,
      "찍": 3008,
      "찎": 3009,
      "찐": 3010,
      "찔": 3011,
      "찜": 3012,
      "찝": 3013,
      "찟": 3014,
      "찡": 3015,
      "찢": 3016,
      "찣": 3017,
      "찧": 3018,
      "차": 3019,
      "착": 3020,
      "찬": 3021,
      "찮": 3022,
      "찰": 3023,
      "참": 3024,
      "찹": 3025,
      "찻": 3026,
      "찼": 3027,
      "창": 3028,
      "찾": 3029,
      "찿": 3030,
      "챃": 3031,
      "채": 3032,
      "책": 3033,
      "챈": 3034,
      "챌": 3035,
      "챔": 3036,
      "챕": 3037,
      "챗": 3038,
      "챘": 3039,
      "챙": 3040,
      "챠": 3041,
      "챡": 3042,
      "챤": 3043,
      "챦": 3044,
      "챨": 3045,
      "챰": 3046,
      "챵": 3047,
      "처": 3048,
      "척": 3049,
      "천": 3050,
      "철": 3051,
      "첨": 3052,
      "첩": 3053,
      "첫": 3054,
      "첬": 3055,
      "청": 3056,
      "첮": 3057,
      "체": 3058,
      "첵": 3059,
      "첸": 3060,
      "첼": 3061,
      "쳇": 3062,
      "쳉": 3063,
      "쳐": 3064,
      "쳑": 3065,
      "쳔": 3066,
      "쳘": 3067,
      "쳣": 3068,
      "쳤": 3069,
      "쳥": 3070,
      "쳫": 3071,
      "쳬": 3072,
      "초": 3073,
      "촉": 3074,
      "촌": 3075,
      "촐": 3076,
      "촘": 3077,
      "촙": 3078,
      "촛": 3079,
      "총": 3080,
      "촞": 3081,
      "촟": 3082,
      "촣": 3083,
      "촤": 3084,
      "촥": 3085,
      "촨": 3086,
      "촬": 3087,
      "촴": 3088,
      "촵": 3089,
      "촹": 3090,
      "쵀": 3091,
      "최": 3092,
      "쵝": 3093,
      "쵸": 3094,
      "춋": 3095,
      "춍": 3096,
      "추": 3097,
      "축": 3098,
      "춘": 3099,
      "출": 3100,
      "춣": 3101,
      "춤": 3102,
      "춥": 3103,
      "춧": 3104,
      "충": 3105,
      "춰": 3106,
      "춴": 3107,
      "췁": 3108,
      "췃": 3109,
      "췄": 3110,
      "췌": 3111,
      "취": 3112,
      "췬": 3113,
      "츄": 3114,
      "츈": 3115,
      "츌": 3116,
      "츙": 3117,
      "츠": 3118,
      "측": 3119,
      "츤": 3120,
      "츨": 3121,
      "츰": 3122,
      "츳": 3123,
      "층": 3124,
      "츼": 3125,
      "칀": 3126,
      "치": 3127,
      "칙": 3128,
      "친": 3129,
      "칠": 3130,
      "칡": 3131,
      "침": 3132,
      "칩": 3133,
      "칫": 3134,
      "칬": 3135,
      "칭": 3136,
      "칮": 3137,
      "카": 3138,
      "칵": 3139,
      "칸": 3140,
      "칼": 3141,
      "캄": 3142,
      "캅": 3143,
      "캇": 3144,
      "캉": 3145,
      "캌": 3146,
      "캍": 3147,
      "캐": 3148,
      "캑": 3149,
      "캔": 3150,
      "캘": 3151,
      "캠": 3152,
      "캡": 3153,
      "캣": 3154,
      "캤": 3155,
      "캥": 3156,
      "캬": 3157,
      "캭": 3158,
      "컄": 3159,
      "커": 3160,
      "컥": 3161,
      "컨": 3162,
      "컫": 3163,
      "컬": 3164,
      "컴": 3165,
      "컵": 3166,
      "컷": 3167,
      "컸": 3168,
      "컹": 3169,
      "컽": 3170,
      "케": 3171,
      "켁": 3172,
      "켄": 3173,
      "켈": 3174,
      "켐": 3175,
      "켑": 3176,
      "켓": 3177,
      "켔": 3178,
      "켕": 3179,
      "켜": 3180,
      "켝": 3181,
      "켠": 3182,
      "켤": 3183,
      "켬": 3184,
      "켭": 3185,
      "켯": 3186,
      "켰": 3187,
      "켱": 3188,
      "켸": 3189,
      "코": 3190,
      "콕": 3191,
      "콘": 3192,
      "콜": 3193,
      "콤": 3194,
      "콥": 3195,
      "콧": 3196,
      "콩": 3197,
      "콰": 3198,
      "콱": 3199,
      "콴": 3200,
      "콸": 3201,
      "쾅": 3202,
      "쾈": 3203,
      "쾌": 3204,
      "쾍": 3205,
      "쾡": 3206,
      "쾨": 3207,
      "쿄": 3208,
      "쿠": 3209,
      "쿡": 3210,
      "쿤": 3211,
      "쿨": 3212,
      "쿰": 3213,
      "쿵": 3214,
      "쿸": 3215,
      "쿼": 3216,
      "퀀": 3217,
      "퀄": 3218,
      "퀘": 3219,
      "퀭": 3220,
      "퀴": 3221,
      "퀵": 3222,
      "퀸": 3223,
      "퀼": 3224,
      "큐": 3225,
      "큘": 3226,
      "크": 3227,
      "큭": 3228,
      "큰": 3229,
      "클": 3230,
      "큼": 3231,
      "큽": 3232,
      "큿": 3233,
      "킁": 3234,
      "킄": 3235,
      "킅": 3236,
      "킈": 3237,
      "키": 3238,
      "킥": 3239,
      "킨": 3240,
      "킬": 3241,
      "킴": 3242,
      "킵": 3243,
      "킷": 3244,
      "킹": 3245,
      "킼": 3246,
      "타": 3247,
      "탁": 3248,
      "탄": 3249,
      "탈": 3250,
      "탉": 3251,
      "탐": 3252,
      "탑": 3253,
      "탓": 3254,
      "탔": 3255,
      "탕": 3256,
      "태": 3257,
      "택": 3258,
      "탠": 3259,
      "탤": 3260,
      "탬": 3261,
      "탭": 3262,
      "탯": 3263,
      "탰": 3264,
      "탱": 3265,
      "탸": 3266,
      "탹": 3267,
      "터": 3268,
      "턱": 3269,
      "턴": 3270,
      "털": 3271,
      "텀": 3272,
      "텁": 3273,
      "텃": 3274,
      "텄": 3275,
      "텅": 3276,
      "텋": 3277,
      "테": 3278,
      "텍": 3279,
      "텐": 3280,
      "텔": 3281,
      "템": 3282,
      "텝": 3283,
      "텟": 3284,
      "텡": 3285,
      "텨": 3286,
      "텬": 3287,
      "텻": 3288,
      "텼": 3289,
      "톄": 3290,
      "톈": 3291,
      "토": 3292,
      "톡": 3293,
      "톤": 3294,
      "톨": 3295,
      "톰": 3296,
      "톱": 3297,
      "톳": 3298,
      "통": 3299,
      "톼": 3300,
      "퇄": 3301,
      "퇘": 3302,
      "퇫": 3303,
      "퇬": 3304,
      "퇴": 3305,
      "툇": 3306,
      "툐": 3307,
      "툥": 3308,
      "투": 3309,
      "툭": 3310,
      "툰": 3311,
      "툴": 3312,
      "툼": 3313,
      "툽": 3314,
      "퉁": 3315,
      "퉈": 3316,
      "퉛": 3317,
      "퉜": 3318,
      "퉤": 3319,
      "퉥": 3320,
      "퉷": 3321,
      "퉸": 3322,
      "튀": 3323,
      "튄": 3324,
      "튈": 3325,
      "튐": 3326,
      "튓": 3327,
      "튕": 3328,
      "튜": 3329,
      "튠": 3330,
      "튤": 3331,
      "튬": 3332,
      "튭": 3333,
      "튱": 3334,
      "트": 3335,
      "특": 3336,
      "튼": 3337,
      "튿": 3338,
      "틀": 3339,
      "틈": 3340,
      "틉": 3341,
      "틋": 3342,
      "틍": 3343,
      "틐": 3344,
      "틑": 3345,
      "틔": 3346,
      "티": 3347,
      "틱": 3348,
      "틴": 3349,
      "틸": 3350,
      "팀": 3351,
      "팁": 3352,
      "팃": 3353,
      "팅": 3354,
      "파": 3355,
      "팍": 3356,
      "팎": 3357,
      "판": 3358,
      "팔": 3359,
      "팜": 3360,
      "팝": 3361,
      "팟": 3362,
      "팠": 3363,
      "팡": 3364,
      "팤": 3365,
      "팥": 3366,
      "패": 3367,
      "팩": 3368,
      "팬": 3369,
      "팰": 3370,
      "팸": 3371,
      "팹": 3372,
      "팻": 3373,
      "팼": 3374,
      "팽": 3375,
      "퍀": 3376,
      "퍄": 3377,
      "퍅": 3378,
      "퍈": 3379,
      "퍌": 3380,
      "퍙": 3381,
      "퍠": 3382,
      "퍼": 3383,
      "퍽": 3384,
      "펀": 3385,
      "펄": 3386,
      "펌": 3387,
      "펍": 3388,
      "펏": 3389,
      "펐": 3390,
      "펑": 3391,
      "페": 3392,
      "펙": 3393,
      "펜": 3394,
      "펠": 3395,
      "펨": 3396,
      "펩": 3397,
      "펫": 3398,
      "펭": 3399,
      "펴": 3400,
      "편": 3401,
      "펼": 3402,
      "폄": 3403,
      "폇": 3404,
      "폈": 3405,
      "평": 3406,
      "폐": 3407,
      "폔": 3408,
      "포": 3409,
      "폭": 3410,
      "폰": 3411,
      "폴": 3412,
      "폼": 3413,
      "폽": 3414,
      "폿": 3415,
      "퐁": 3416,
      "퐈": 3417,
      "퐉": 3418,
      "퐌": 3419,
      "퐐": 3420,
      "퐝": 3421,
      "표": 3422,
      "푠": 3423,
      "푯": 3424,
      "푱": 3425,
      "푸": 3426,
      "푹": 3427,
      "푼": 3428,
      "풀": 3429,
      "품": 3430,
      "풉": 3431,
      "풋": 3432,
      "풍": 3433,
      "풰": 3434,
      "퓌": 3435,
      "퓨": 3436,
      "퓰": 3437,
      "퓸": 3438,
      "퓽": 3439,
      "프": 3440,
      "픈": 3441,
      "플": 3442,
      "픔": 3443,
      "픕": 3444,
      "픙": 3445,
      "피": 3446,
      "픽": 3447,
      "핀": 3448,
      "필": 3449,
      "핌": 3450,
      "핍": 3451,
      "핏": 3452,
      "핑": 3453,
      "하": 3454,
      "학": 3455,
      "한": 3456,
      "핝": 3457,
      "핟": 3458,
      "할": 3459,
      "핡": 3460,
      "핣": 3461,
      "핥": 3462,
      "핧": 3463,
      "함": 3464,
      "합": 3465,
      "핫": 3466,
      "핬": 3467,
      "항": 3468,
      "핮": 3469,
      "핰": 3470,
      "핱": 3471,
      "핳": 3472,
      "해": 3473,
      "핵": 3474,
      "핸": 3475,
      "핼": 3476,
      "햄": 3477,
      "햅": 3478,
      "햇": 3479,
      "했": 3480,
      "행": 3481,
      "햊": 3482,
      "햌": 3483,
      "햏": 3484,
      "햐": 3485,
      "햑": 3486,
      "햔": 3487,
      "햘": 3488,
      "햝": 3489,
      "햠": 3490,
      "햡": 3491,
      "햣": 3492,
      "햤": 3493,
      "향": 3494,
      "햬": 3495,
      "햿": 3496,
      "헀": 3497,
      "헁": 3498,
      "허": 3499,
      "헉": 3500,
      "헌": 3501,
      "헐": 3502,
      "험": 3503,
      "헙": 3504,
      "헛": 3505,
      "헜": 3506,
      "헝": 3507,
      "헠": 3508,
      "헣": 3509,
      "헤": 3510,
      "헥": 3511,
      "헨": 3512,
      "헬": 3513,
      "헴": 3514,
      "헷": 3515,
      "헸": 3516,
      "헹": 3517,
      "헿": 3518,
      "혀": 3519,
      "혁": 3520,
      "현": 3521,
      "혈": 3522,
      "혐": 3523,
      "협": 3524,
      "혓": 3525,
      "혔": 3526,
      "형": 3527,
      "혜": 3528,
      "호": 3529,
      "혹": 3530,
      "혼": 3531,
      "홀": 3532,
      "홈": 3533,
      "홉": 3534,
      "홋": 3535,
      "홍": 3536,
      "홓": 3537,
      "화": 3538,
      "확": 3539,
      "환": 3540,
      "활": 3541,
      "홤": 3542,
      "홥": 3543,
      "홧": 3544,
      "황": 3545,
      "홰": 3546,
      "홱": 3547,
      "횃": 3548,
      "회": 3549,
      "획": 3550,
      "횐": 3551,
      "횔": 3552,
      "횟": 3553,
      "횡": 3554,
      "효": 3555,
      "횬": 3556,
      "횽": 3557,
      "후": 3558,
      "훅": 3559,
      "훈": 3560,
      "훌": 3561,
      "훍": 3562,
      "훑": 3563,
      "훓": 3564,
      "훔": 3565,
      "훕": 3566,
      "훗": 3567,
      "훙": 3568,
      "훝": 3569,
      "훠": 3570,
      "훤": 3571,
      "훨": 3572,
      "훻": 3573,
      "훼": 3574,
      "훽": 3575,
      "휀": 3576,
      "휏": 3577,
      "휑": 3578,
      "휘": 3579,
      "휙": 3580,
      "휜": 3581,
      "휠": 3582,
      "휩": 3583,
      "휭": 3584,
      "휴": 3585,
      "휸": 3586,
      "휼": 3587,
      "흉": 3588,
      "흐": 3589,
      "흑": 3590,
      "흔": 3591,
      "흘": 3592,
      "흙": 3593,
      "흠": 3594,
      "흡": 3595,
      "흣": 3596,
      "흥": 3597,
      "흩": 3598,
      "흫": 3599,
      "희": 3600,
      "흭": 3601,
      "흰": 3602,
      "흴": 3603,
      "히": 3604,
      "힉": 3605,
      "힌": 3606,
      "힐": 3607,
      "힘": 3608,
      "힙": 3609,
      "힛": 3610,
      "힝": 3611,
      "힣": 3612,
      "金": 3613,
      "盧": 3614,
      "不": 3615,
      "女": 3616,
      "李": 3617,
      "︎": 3618,
      "️": 3619,
      "︠": 3620,
      "︡": 3621,
      "！": 3622,
      "％": 3623,
      "（": 3624,
      "）": 3625,
      "，": 3626,
      "：": 3627,
      "？": 3628,
      "｀": 3629,
      "～": 3630,
      "｡": 3631,
      "･": 3632,
      "ｦ": 3633,
      "ﾉ": 3634,
      "ﾟ": 3635,
      "￣": 3636,
      "￦": 3637,
      "𐌅": 3638,
      "𐨛": 3639,
      "𝄂": 3640,
      "𝄃": 3641,
      "🆘": 3642,
      "🇨": 3643,
      "🇭": 3644,
      "🇯": 3645,
      "🇰": 3646,
      "🇱": 3647,
      "🇲": 3648,
      "🇳": 3649,
      "🇵": 3650,
      "🇷": 3651,
      "🇸": 3652,
      "🇹": 3653,
      "🇺": 3654,
      "🇼": 3655,
      "🈲": 3656,
      "🌀": 3657,
      "🌅": 3658,
      "🌈": 3659,
      "🌊": 3660,
      "🌋": 3661,
      "🌎": 3662,
      "🌕": 3663,
      "🌙": 3664,
      "🌚": 3665,
      "🌛": 3666,
      "🌜": 3667,
      "🌟": 3668,
      "🌩": 3669,
      "🌰": 3670,
      "🌶": 3671,
      "🌷": 3672,
      "🌸": 3673,
      "🌹": 3674,
      "🌺": 3675,
      "🌻": 3676,
      "🌼": 3677,
      "🌿": 3678,
      "🍀": 3679,
      "🍅": 3680,
      "🍆": 3681,
      "🍉": 3682,
      "🍊": 3683,
      "🍋": 3684,
      "🍌": 3685,
      "🍎": 3686,
      "🍏": 3687,
      "🍑": 3688,
      "🍒": 3689,
      "🍓": 3690,
      "🍖": 3691,
      "🍞": 3692,
      "🍳": 3693,
      "🍺": 3694,
      "🍼": 3695,
      "🍾": 3696,
      "🎀": 3697,
      "🎃": 3698,
      "🎄": 3699,
      "🎅": 3700,
      "🎆": 3701,
      "🎈": 3702,
      "🎉": 3703,
      "🎊": 3704,
      "🎗": 3705,
      "🎤": 3706,
      "🎯": 3707,
      "🎵": 3708,
      "🎶": 3709,
      "🏃": 3710,
      "🏅": 3711,
      "🏚": 3712,
      "🏻": 3713,
      "🏼": 3714,
      "🏽": 3715,
      "🏾": 3716,
      "🏿": 3717,
      "🐀": 3718,
      "🐁": 3719,
      "🐂": 3720,
      "🐃": 3721,
      "🐄": 3722,
      "🐅": 3723,
      "🐆": 3724,
      "🐇": 3725,
      "🐈": 3726,
      "🐉": 3727,
      "🐍": 3728,
      "🐎": 3729,
      "🐏": 3730,
      "🐑": 3731,
      "🐒": 3732,
      "🐓": 3733,
      "🐔": 3734,
      "🐕": 3735,
      "🐖": 3736,
      "🐗": 3737,
      "🐙": 3738,
      "🐛": 3739,
      "🐜": 3740,
      "🐝": 3741,
      "🐟": 3742,
      "🐣": 3743,
      "🐤": 3744,
      "🐥": 3745,
      "🐦": 3746,
      "🐧": 3747,
      "🐨": 3748,
      "🐩": 3749,
      "🐭": 3750,
      "🐮": 3751,
      "🐯": 3752,
      "🐰": 3753,
      "🐱": 3754,
      "🐴": 3755,
      "🐵": 3756,
      "🐶": 3757,
      "🐷": 3758,
      "🐸": 3759,
      "🐺": 3760,
      "🐽": 3761,
      "🐾": 3762,
      "👀": 3763,
      "👁": 3764,
      "👄": 3765,
      "👅": 3766,
      "👆": 3767,
      "👇": 3768,
      "👈": 3769,
      "👉": 3770,
      "👊": 3771,
      "👋": 3772,
      "👌": 3773,
      "👍": 3774,
      "👎": 3775,
      "👏": 3776,
      "👑": 3777,
      "👙": 3778,
      "👞": 3779,
      "👟": 3780,
      "👣": 3781,
      "👤": 3782,
      "👥": 3783,
      "👦": 3784,
      "👧": 3785,
      "👨": 3786,
      "👩": 3787,
      "👮": 3788,
      "👴": 3789,
      "👶": 3790,
      "👹": 3791,
      "👺": 3792,
      "👻": 3793,
      "👽": 3794,
      "👾": 3795,
      "👿": 3796,
      "💀": 3797,
      "💃": 3798,
      "💉": 3799,
      "💊": 3800,
      "💋": 3801,
      "💎": 3802,
      "💏": 3803,
      "💐": 3804,
      "💑": 3805,
      "💓": 3806,
      "💔": 3807,
      "💕": 3808,
      "💖": 3809,
      "💗": 3810,
      "💘": 3811,
      "💙": 3812,
      "💚": 3813,
      "💛": 3814,
      "💜": 3815,
      "💝": 3816,
      "💞": 3817,
      "💟": 3818,
      "💡": 3819,
      "💢": 3820,
      "💣": 3821,
      "💤": 3822,
      "💥": 3823,
      "💦": 3824,
      "💨": 3825,
      "💩": 3826,
      "💪": 3827,
      "💫": 3828,
      "💯": 3829,
      "💰": 3830,
      "💸": 3831,
      "💻": 3832,
      "📌": 3833,
      "📢": 3834,
      "📣": 3835,
      "🔇": 3836,
      "🔊": 3837,
      "🔑": 3838,
      "🔔": 3839,
      "🔖": 3840,
      "🔞": 3841,
      "🔥": 3842,
      "🔨": 3843,
      "🔪": 3844,
      "🔫": 3845,
      "🔮": 3846,
      "🔴": 3847,
      "🔵": 3848,
      "🔶": 3849,
      "🔸": 3850,
      "🔹": 3851,
      "🔺": 3852,
      "🕊": 3853,
      "🕯": 3854,
      "🕷": 3855,
      "🖐": 3856,
      "🖕": 3857,
      "🖤": 3858,
      "🗑": 3859,
      "🗡": 3860,
      "🗣": 3861,
      "🗽": 3862,
      "😀": 3863,
      "😁": 3864,
      "😂": 3865,
      "😃": 3866,
      "😄": 3867,
      "😅": 3868,
      "😆": 3869,
      "😇": 3870,
      "😈": 3871,
      "😉": 3872,
      "😊": 3873,
      "😋": 3874,
      "😌": 3875,
      "😍": 3876,
      "😎": 3877,
      "😏": 3878,
      "😐": 3879,
      "😑": 3880,
      "😒": 3881,
      "😓": 3882,
      "😔": 3883,
      "😕": 3884,
      "😖": 3885,
      "😗": 3886,
      "😘": 3887,
      "😙": 3888,
      "😚": 3889,
      "😛": 3890,
      "😜": 3891,
      "😝": 3892,
      "😞": 3893,
      "😠": 3894,
      "😡": 3895,
      "😢": 3896,
      "😣": 3897,
      "😤": 3898,
      "😥": 3899,
      "😧": 3900,
      "😨": 3901,
      "😩": 3902,
      "😪": 3903,
      "😫": 3904,
      "😬": 3905,
      "😭": 3906,
      "😮": 3907,
      "😰": 3908,
      "😱": 3909,
      "😲": 3910,
      "😳": 3911,
      "😴": 3912,
      "😵": 3913,
      "😶": 3914,
      "😷": 3915,
      "😻": 3916,
      "🙂": 3917,
      "🙃": 3918,
      "🙄": 3919,
      "🙅": 3920,
      "🙆": 3921,
      "🙇": 3922,
      "🙈": 3923,
      "🙉": 3924,
      "🙊": 3925,
      "🙋": 3926,
      "🙌": 3927,
      "🙏": 3928,
      "🚀": 3929,
      "🚔": 3930,
      "🚗": 3931,
      "🚨": 3932,
      "🚩": 3933,
      "🚪": 3934,
      "🚫": 3935,
      "🚬": 3936,
      "🚴": 3937,
      "🛑": 3938,
      "🟥": 3939,
      "🤍": 3940,
      "🤏": 3941,
      "🤐": 3942,
      "🤑": 3943,
      "🤓": 3944,
      "🤔": 3945,
      "🤕": 3946,
      "🤗": 3947,
      "🤚": 3948,
      "🤛": 3949,
      "🤜": 3950,
      "🤞": 3951,
      "🤡": 3952,
      "🤢": 3953,
      "🤣": 3954,
      "🤤": 3955,
      "🤥": 3956,
      "🤦": 3957,
      "🤧": 3958,
      "🤨": 3959,
      "🤩": 3960,
      "🤪": 3961,
      "🤫": 3962,
      "🤬": 3963,
      "🤭": 3964,
      "🤮": 3965,
      "🤯": 3966,
      "🤴": 3967,
      "🤷": 3968,
      "🤸": 3969,
      "🤺": 3970,
      "🥄": 3971,
      "🥇": 3972,
      "🥊": 3973,
      "🥕": 3974,
      "🥩": 3975,
      "🥰": 3976,
      "🥱": 3977,
      "🥲": 3978,
      "🥳": 3979,
      "🥵": 3980,
      "🥶": 3981,
      "🥺": 3982,
      "🦀": 3983,
      "🦅": 3984,
      "🦆": 3985,
      "🦇": 3986,
      "🦉": 3987,
      "🦊": 3988,
      "🦍": 3989,
      "🦜": 3990,
      "🦠": 3991,
      "🦧": 3992,
      "🦮": 3993,
      "🦴": 3994,
      "🦶": 3995,
      "🦺": 3996,
      "🧐": 3997,
      "🧟": 3998,
      "🧠": 3999,
      "🧡": 4000,
      "🧨": 4001,
      "🩸": 4002,
      "🪓": 4003,
      "🪳": 4004,
      "##보": 4005,
      "##사": 4006,
      "##회": 4007,
      "##다": 4008,
      "##도": 4009,
      "##못": 4010,
      "##꾸": 4011,
      "##것": 4012,
      "##풀": 4013,
      "##란": 4014,
      "##건": 4015,
      "##데": 4016,
      "##4": 4017,
      "##1": 4018,
      "##장": 4019,
      "##르": 4020,
      "##쇠": 4021,
      "##뼝": 4022,
      "##치": 4023,
      "##던": 4024,
      "##아": 4025,
      "##있": 4026,
      "##는": 4027,
      "##ㅇ": 4028,
      "##ㅣ": 4029,
      "##기": 4030,
      "##단": 4031,
      "##일": 4032,
      "##줄": 4033,
      "##이": 4034,
      "##야": 4035,
      "##역": 4036,
      "##화": 4037,
      "##폐": 4038,
      "##활": 4039,
      "##성": 4040,
      "##를": 4041,
      "##r": 4042,
      "##a": 4043,
      "##지": 4044,
      "##가": 4045,
      "##나": 4046,
      "##라": 4047,
      "##팔": 4048,
      "##린": 4049,
      "##고": 4050,
      "##할": 4051,
      "##때": 4052,
      "##본": 4053,
      "##피": 4054,
      "##신": 4055,
      "##에": 4056,
      "##까": 4057,
      "##넘": 4058,
      "##의": 4059,
      "##존": 4060,
      "##엄": 4061,
      "##그": 4062,
      "##래": 4063,
      "##랫": 4064,
      "##층": 4065,
      "##달": 4066,
      "##하": 4067,
      "##러": 4068,
      "##거": 4069,
      "##한": 4070,
      "##병": 4071,
      "##먹": 4072,
      "##으": 4073,
      "##면": 4074,
      "##끝": 4075,
      "##구": 4076,
      "##질": 4077,
      "##근": 4078,
      "##들": 4079,
      "##ㅋ": 4080,
      "##주": 4081,
      "##영": 4082,
      "##분": 4083,
      "##쳐": 4084,
      "##당": 4085,
      "##빨": 4086,
      "##g": 4087,
      "##n": 4088,
      "##점": 4089,
      "##갱": 4090,
      "##되": 4091,
      "##어": 4092,
      "##자": 4093,
      "##세": 4094,
      "##여": 4095,
      "##바": 4096,
      "##판": 4097,
      "##났": 4098,
      "##저": 4099,
      "##정": 4100,
      "##로": 4101,
      "##법": 4102,
      "##원": 4103,
      "##만": 4104,
      "##남": 4105,
      "##았": 4106,
      "##니": 4107,
      "##왔": 4108,
      "##네": 4109,
      "##냐": 4110,
      "##음": 4111,
      "##녹": 4112,
      "##서": 4113,
      "##뻥": 4114,
      "##임": 4115,
      "##교": 4116,
      "##겸": 4117,
      "##했": 4118,
      "##군": 4119,
      "##망": 4120,
      "##집": 4121,
      "##용": 4122,
      "##동": 4123,
      "##산": 4124,
      "##중": 4125,
      "##계": 4126,
      "##방": 4127,
      "##식": 4128,
      "##셐": 4129,
      "##퀴": 4130,
      "##람": 4131,
      "##심": 4132,
      "##버": 4133,
      "##요": 4134,
      "##무": 4135,
      "##A": 4136,
      "##수": 4137,
      "##꼴": 4138,
      "##토": 4139,
      "##착": 4140,
      "##왜": 4141,
      "##은": 4142,
      "##0": 4143,
      "##액": 4144,
      "##공": 4145,
      "##제": 4146,
      "##끊": 4147,
      "##롱": 4148,
      "##리": 4149,
      "##더": 4150,
      "##통": 4151,
      "##인": 4152,
      "##힘": 4153,
      "##없": 4154,
      "##해": 4155,
      "##렇": 4156,
      "##게": 4157,
      "##안": 4158,
      "##된": 4159,
      "##급": 4160,
      "##상": 4161,
      "##과": 4162,
      "##갖": 4163,
      "##올": 4164,
      "##챙": 4165,
      "##범": 4166,
      "##죄": 4167,
      "##업": 4168,
      "##닭": 4169,
      "##각": 4170,
      "##찌": 4171,
      "##시": 4172,
      "##예": 4173,
      "##절": 4174,
      "##육": 4175,
      "##대": 4176,
      "##쫌": 4177,
      "##켜": 4178,
      "##멸": 4179,
      "##패": 4180,
      "##널": 4181,
      "##선": 4182,
      "##놈": 4183,
      "##죠": 4184,
      "##내": 4185,
      "##랑": 4186,
      "##트": 4187,
      "##부": 4188,
      "##봉": 4189,
      "##쇄": 4190,
      "##됐": 4191,
      "##댔": 4192,
      "##었": 4193,
      "##우": 4194,
      "##노": 4195,
      "##골": 4196,
      "##적": 4197,
      "##유": 4198,
      "##5": 4199,
      "##억": 4200,
      "##전": 4201,
      "##능": 4202,
      "##력": 4203,
      "##짓": 4204,
      "##말": 4205,
      "##윈": 4206,
      "##꾹": 4207,
      "##땜": 4208,
      "##족": 4209,
      "##잇": 4210,
      "##드": 4211,
      "##채": 4212,
      "##퇴": 4213,
      "##마": 4214,
      "##창": 4215,
      "##논": 4216,
      "##렸": 4217,
      "##ㅠ": 4218,
      "##료": 4219,
      "##험": 4220,
      "##혜": 4221,
      "##택": 4222,
      "##늘": 4223,
      "##케": 4224,
      "##소": 4225,
      "##십": 4226,
      "##갔": 4227,
      "##돼": 4228,
      "##을": 4229,
      "##듯": 4230,
      "##격": 4231,
      "##와": 4232,
      "##축": 4233,
      "##뿌": 4234,
      "##ᆢ": 4235,
      "##테": 4236,
      "##얘": 4237,
      "##T": 4238,
      "##천": 4239,
      "##징": 4240,
      "##ㆍ": 4241,
      "##ㅂ": 4242,
      "##며": 4243,
      "##습": 4244,
      "##친": 4245,
      "##좀": 4246,
      "##비": 4247,
      "##재": 4248,
      "##옆": 4249,
      "##낼": 4250,
      "##애": 4251,
      "##먼": 4252,
      "##않": 4253,
      "##개": 4254,
      "##입": 4255,
      "##위": 4256,
      "##반": 4257,
      "##국": 4258,
      "##투": 4259,
      "##표": 4260,
      "##외": 4261,
      "##찾": 4262,
      "##속": 4263,
      "##키": 4264,
      "##백": 4265,
      "##명": 4266,
      "##8": 4267,
      "##년": 4268,
      "##독": 4269,
      "##권": 4270,
      "##냅": 4271,
      "##파": 4272,
      "##탄": 4273,
      "##생": 4274,
      "##모": 4275,
      "##뒤": 4276,
      "##처": 4277,
      "##진": 4278,
      "##땅": 4279,
      "##필": 4280,
      "##울": 4281,
      "##경": 4282,
      "##티": 4283,
      "##배": 4284,
      "##뿐": 4285,
      "##v": 4286,
      "##e": 4287,
      "##m": 4288,
      "##민": 4289,
      "##같": 4290,
      "##변": 4291,
      "##송": 4292,
      "##강": 4293,
      "##행": 4294,
      "##겠": 4295,
      "##승": 4296,
      "##텐": 4297,
      "##차": 4298,
      "##살": 4299,
      "##2": 4300,
      "##짜": 4301,
      "##폰": 4302,
      "##됬": 4303,
      "##쳤": 4304,
      "##땐": 4305,
      "##돈": 4306,
      "##콕": 4307,
      "##답": 4308,
      "##결": 4309,
      "##검": 4310,
      "##줫": 4311,
      "##쉐": 4312,
      "##함": 4313,
      "##👏": 4314,
      "##커": 4315,
      "##넹": 4316,
      "##매": 4317,
      "##운": 4318,
      "##려": 4319,
      "##참": 4320,
      "##스": 4321,
      "##ㄷ": 4322,
      "##ㅐ": 4323,
      "##학": 4324,
      "##런": 4325,
      "##조": 4326,
      "##순": 4327,
      "##냥": 4328,
      "##3": 4329,
      "##완": 4330,
      "##뫙": 4331,
      "##워": 4332,
      "##침": 4333,
      "##뱉": 4334,
      "##팎": 4335,
      "##벽": 4336,
      "##페": 4337,
      "##미": 4338,
      "##녀": 4339,
      "##ㅉ": 4340,
      "##너": 4341,
      "##희": 4342,
      "##연": 4343,
      "##O": 4344,
      "##럼": 4345,
      "##작": 4346,
      "##형": 4347,
      "##슨": 4348,
      "##얏": 4349,
      "##죽": 4350,
      "##번": 4351,
      "##혀": 4352,
      "##딱": 4353,
      "##따": 4354,
      "##취": 4355,
      "##핵": 4356,
      "##염": 4357,
      "##셨": 4358,
      "##감": 4359,
      "##합": 4360,
      "##ㅅ": 4361,
      "##터": 4362,
      "##쁜": 4363,
      "##싶": 4364,
      "##밖": 4365,
      "##왓": 4366,
      "##님": 4367,
      "##목": 4368,
      "##새": 4369,
      "##훔": 4370,
      "##셰": 4371,
      "##디": 4372,
      "##욱": 4373,
      "##받": 4374,
      "##관": 4375,
      "##련": 4376,
      "##앙": 4377,
      "##똥": 4378,
      "##끄": 4379,
      "##u": 4380,
      "##l": 4381,
      "##t": 4382,
      "##직": 4383,
      "##종": 4384,
      "##ㄹ": 4385,
      "##걸": 4386,
      "##렷": 4387,
      "##좋": 4388,
      "##겟": 4389,
      "##오": 4390,
      "##쏘": 4391,
      "##언": 4392,
      "##량": 4393,
      "##효": 4394,
      "##손": 4395,
      "##물": 4396,
      "##문": 4397,
      "##박": 4398,
      "##져": 4399,
      "##월": 4400,
      "##담": 4401,
      "##몰": 4402,
      "##실": 4403,
      "##댓": 4404,
      "##포": 4405,
      "##ㅈ": 4406,
      "##ㅎ": 4407,
      "##궁": 4408,
      "##금": 4409,
      "##허": 4410,
      "##맹": 4411,
      "##약": 4412,
      "##후": 4413,
      "##편": 4414,
      "##6": 4415,
      "##타": 4416,
      "##탕": 4417,
      "##술": 4418,
      "##톤": 4419,
      "##머": 4420,
      "##k": 4421,
      "##광": 4422,
      "##욤": 4423,
      "##퇘": 4424,
      "##ㅡ": 4425,
      "##큰": 4426,
      "##림": 4427,
      "##훈": 4428,
      "##갑": 4429,
      "##덜": 4430,
      "##벌": 4431,
      "##발": 4432,
      "##럽": 4433,
      "##석": 4434,
      "##닌": 4435,
      "##글": 4436,
      "##늉": 4437,
      "##접": 4438,
      "##류": 4439,
      "##혈": 4440,
      "##히": 4441,
      "##날": 4442,
      "##난": 4443,
      "##줌": 4444,
      "##론": 4445,
      "##젼": 4446,
      "##많": 4447,
      "##추": 4448,
      "##팅": 4449,
      "##익": 4450,
      "##봐": 4451,
      "##ㄲ": 4452,
      "##곡": 4453,
      "##줬": 4454,
      "##색": 4455,
      "##였": 4456,
      "##악": 4457,
      "##듣": 4458,
      "##품": 4459,
      "##찰": 4460,
      "##혁": 4461,
      "##막": 4462,
      "##현": 4463,
      "##간": 4464,
      "##깨": 4465,
      "##혼": 4466,
      "##또": 4467,
      "##온": 4468,
      "##셔": 4469,
      "##멧": 4470,
      "##써": 4471,
      "##졌": 4472,
      "##탈": 4473,
      "##뎈": 4474,
      "##🦮": 4475,
      "##🐕": 4476,
      "##🦺": 4477,
      "##🐷": 4478,
      "##🐖": 4479,
      "##풍": 4480,
      "##촉": 4481,
      "##빵": 4482,
      "##맘": 4483,
      "##열": 4484,
      "##톡": 4485,
      "##홀": 4486,
      "##름": 4487,
      "##등": 4488,
      "##좌": 4489,
      "##찍": 4490,
      "##항": 4491,
      "##체": 4492,
      "##♡": 4493,
      "##뢰": 4494,
      "##맥": 4495,
      "##홍": 4496,
      "##득": 4497,
      "##청": 4498,
      "##렁": 4499,
      "##령": 4500,
      "##레": 4501,
      "##ㅜ": 4502,
      "##끼": 4503,
      "##씌": 4504,
      "##누": 4505,
      "##똑": 4506,
      "##규": 4507,
      "##푼": 4508,
      "##느": 4509,
      "##크": 4510,
      "##폭": 4511,
      "##잡": 4512,
      "##양": 4513,
      "##칠": 4514,
      "##꾼": 4515,
      "##책": 4516,
      "##씨": 4517,
      "##꼬": 4518,
      "##잦": 4519,
      "##견": 4520,
      "##랄": 4521,
      "##브": 4522,
      "##루": 4523,
      "##쎄": 4524,
      "##K": 4525,
      "##Y": 4526,
      "##j": 4527,
      "##i": 4528,
      "##혐": 4529,
      "##꼭": 4530,
      "##밀": 4531,
      "##띠": 4532,
      "##졸": 4533,
      "##평": 4534,
      "##준": 4535,
      "##캐": 4536,
      "##됫": 4537,
      "##졷": 4538,
      "##초": 4539,
      "##불": 4540,
      "##9": 4541,
      "##향": 4542,
      "##c": 4543,
      "##x": 4544,
      "##h": 4545,
      "##I": 4546,
      "##q": 4547,
      "##켰": 4548,
      "##뇨": 4549,
      "##얌": 4550,
      "##설": 4551,
      "##앉": 4552,
      "##잘": 4553,
      "##겨": 4554,
      "##퍼": 4555,
      "##줘": 4556,
      "##팡": 4557,
      "##넼": 4558,
      "##앜": 4559,
      "##ㅏ": 4560,
      "##김": 4561,
      "##호": 4562,
      "##빼": 4563,
      "##칙": 4564,
      "##충": 4565,
      "##맛": 4566,
      "##엇": 4567,
      "##알": 4568,
      "##얼": 4569,
      "##겹": 4570,
      "##s": 4571,
      "##두": 4572,
      "##ㅊ": 4573,
      "##삼": 4574,
      "##쿠": 4575,
      "##쓰": 4576,
      "##웃": 4577,
      "##샘": 4578,
      "##덩": 4579,
      "##털": 4580,
      "##꺼": 4581,
      "##별": 4582,
      "##쪽": 4583,
      "##랍": 4584,
      "##낳": 4585,
      "##될": 4586,
      "##팻": 4587,
      "##긴": 4588,
      "##좃": 4589,
      "##든": 4590,
      "##삭": 4591,
      "##셋": 4592,
      "##확": 4593,
      "##멍": 4594,
      "##곳": 4595,
      "##갈": 4596,
      "##뭐": 4597,
      "##잖": 4598,
      "##플": 4599,
      "##태": 4600,
      "##왕": 4601,
      "##b": 4602,
      "##걱": 4603,
      "##증": 4604,
      "##읍": 4605,
      "##환": 4606,
      "##맨": 4607,
      "##돌": 4608,
      "##됏": 4609,
      "##략": 4610,
      "##봄": 4611,
      "##꿀": 4612,
      "##괴": 4613,
      "##X": 4614,
      "##됨": 4615,
      "##틀": 4616,
      "##휘": 4617,
      "##힌": 4618,
      "##ㅍ": 4619,
      "##7": 4620,
      "##놓": 4621,
      "##몇": 4622,
      "##놀": 4623,
      "##므": 4624,
      "##잃": 4625,
      "##릇": 4626,
      "##쌍": 4627,
      "##헌": 4628,
      "##값": 4629,
      "##빠": 4630,
      "##륭": 4631,
      "##👍": 4632,
      "##혹": 4633,
      "##슬": 4634,
      "##떼": 4635,
      "##z": 4636,
      "##탓": 4637,
      "##립": 4638,
      "##넌": 4639,
      "##벗": 4640,
      "##딩": 4641,
      "##d": 4642,
      "##f": 4643,
      "##엔": 4644,
      "##밥": 4645,
      "##출": 4646,
      "##겁": 4647,
      "##컷": 4648,
      "##총": 4649,
      "##Z": 4650,
      "##갚": 4651,
      "##녁": 4652,
      "##렀": 4653,
      "##썩": 4654,
      "##복": 4655,
      "##윤": 4656,
      "##굴": 4657,
      "##콜": 4658,
      "##잠": 4659,
      "##율": 4660,
      "##뒈": 4661,
      "##탐": 4662,
      "##욕": 4663,
      "##눈": 4664,
      "##짐": 4665,
      "##카": 4666,
      "##햇": 4667,
      "##싫": 4668,
      "##랭": 4669,
      "##뜻": 4670,
      "##옳": 4671,
      "##公": 4672,
      "##E": 4673,
      "##V": 4674,
      "##곸": 4675,
      "##께": 4676,
      "##잔": 4677,
      "##뇌": 4678,
      "##철": 4679,
      "##띨": 4680,
      "##빡": 4681,
      "##뉴": 4682,
      "##짗": 4683,
      "##믿": 4684,
      "##록": 4685,
      "##똘": 4686,
      "##쉽": 4687,
      "##뀌": 4688,
      "##묶": 4689,
      "##맞": 4690,
      "##뚱": 4691,
      "##듬": 4692,
      "##길": 4693,
      "##뭔": 4694,
      "##껄": 4695,
      "##탁": 4696,
      "##ㄱ": 4697,
      "##귄": 4698,
      "##썅": 4699,
      "##ㄴ": 4700,
      "##둥": 4701,
      "##넣": 4702,
      "##뻗": 4703,
      "##츠": 4704,
      "##딴": 4705,
      "##뤼": 4706,
      "##롸": 4707,
      "##코": 4708,
      "##슈": 4709,
      "##S": 4710,
      "##슴": 4711,
      "##죤": 4712,
      "##쒸": 4713,
      "##씀": 4714,
      "##뭉": 4715,
      "##찿": 4716,
      "##곤": 4717,
      "##턴": 4718,
      "##얻": 4719,
      "##프": 4720,
      "##극": 4721,
      "##뜨": 4722,
      "##앞": 4723,
      "##둘": 4724,
      "##멈": 4725,
      "##획": 4726,
      "##🚨": 4727,
      "##북": 4728,
      "##ㅓ": 4729,
      "##ㅁ": 4730,
      "##멤": 4731,
      "##숙": 4732,
      "##렌": 4733,
      "##色": 4734,
      "##氣": 4735,
      "##텝": 4736,
      "##떠": 4737,
      "##릴": 4738,
      "##샹": 4739,
      "##및": 4740,
      "##둔": 4741,
      "##뻔": 4742,
      "##베": 4743,
      "##놔": 4744,
      "##둬": 4745,
      "##릉": 4746,
      "##꼈": 4747,
      "##랐": 4748,
      "##훼": 4749,
      "##긍": 4750,
      "##깝": 4751,
      "##몫": 4752,
      "##겔": 4753,
      "##럭": 4754,
      "##몸": 4755,
      "##댜": 4756,
      "##팽": 4757,
      "##쥴": 4758,
      "##렬": 4759,
      "##랏": 4760,
      "##겄": 4761,
      "##낸": 4762,
      "##높": 4763,
      "##G": 4764,
      "##짱": 4765,
      "##농": 4766,
      "##렴": 4767,
      "##뛰": 4768,
      "##👉": 4769,
      "##옴": 4770,
      "##쩝": 4771,
      "##뭘": 4772,
      "##젠": 4773,
      "##딧": 4774,
      "##럿": 4775,
      "##핑": 4776,
      "##쇅": 4777,
      "##협": 4778,
      "##겼": 4779,
      "##봅": 4780,
      "##응": 4781,
      "##H": 4782,
      "##념": 4783,
      "##척": 4784,
      "##멱": 4785,
      "##핳": 4786,
      "##씩": 4787,
      "##뜯": 4788,
      "##눌": 4789,
      "##킨": 4790,
      "##뽑": 4791,
      "##융": 4792,
      "##섭": 4793,
      "##늡": 4794,
      "##😂": 4795,
      "##🙆": 4796,
      "##♀": 4797,
      "##️": 4798,
      "##❤": 4799,
      "##랬": 4800,
      "##콩": 4801,
      "##떻": 4802,
      "##꽃": 4803,
      "##픈": 4804,
      "##긋": 4805,
      "##샤": 4806,
      "##냄": 4807,
      "##N": 4808,
      "##밌": 4809,
      "##덕": 4810,
      "##쵝": 4811,
      "##p": 4812,
      "##떡": 4813,
      "##블": 4814,
      "##갓": 4815,
      "##냔": 4816,
      "##틔": 4817,
      "##옷": 4818,
      "##른": 4819,
      "##흥": 4820,
      "##꿈": 4821,
      "##쯤": 4822,
      "##왑": 4823,
      "##쥬": 4824,
      "##랜": 4825,
      "##젖": 4826,
      "##뽀": 4827,
      "##쑈": 4828,
      "##햏": 4829,
      "##o": 4830,
      "##옵": 4831,
      "##떨": 4832,
      "##즘": 4833,
      "##돕": 4834,
      "##랴": 4835,
      "##뭇": 4836,
      "##뵈": 4837,
      "##힐": 4838,
      "##큼": 4839,
      "##삶": 4840,
      "##쪕": 4841,
      "##뿔": 4842,
      "##옥": 4843,
      "##클": 4844,
      "##닥": 4845,
      "##쇼": 4846,
      "##꺄": 4847,
      "##팀": 4848,
      "##엎": 4849,
      "##딸": 4850,
      "##텍": 4851,
      "##측": 4852,
      "##딜": 4853,
      "##밧": 4854,
      "##앤": 4855,
      "##찜": 4856,
      "##짖": 4857,
      "##쩌": 4858,
      "##잉": 4859,
      "##뎌": 4860,
      "##꽁": 4861,
      "##촬": 4862,
      "##튼": 4863,
      "##빛": 4864,
      "##괜": 4865,
      "##찮": 4866,
      "##꿔": 4867,
      "##최": 4868,
      "##빴": 4869,
      "##깽": 4870,
      "##떳": 4871,
      "##뺏": 4872,
      "##앱": 4873,
      "##W": 4874,
      "##깊": 4875,
      "##쩔": 4876,
      "##뒀": 4877,
      "##락": 4878,
      "##쩡": 4879,
      "##깐": 4880,
      "##찔": 4881,
      "##솜": 4882,
      "##샠": 4883,
      "##낫": 4884,
      "##D": 4885,
      "##U": 4886,
      "##눔": 4887,
      "##쩜": 4888,
      "##퉁": 4889,
      "##늠": 4890,
      "##겪": 4891,
      "##닦": 4892,
      "##■": 4893,
      "##겐": 4894,
      "##깎": 4895,
      "##앗": 4896,
      "##뷰": 4897,
      "##픔": 4898,
      "##례": 4899,
      "##뤄": 4900,
      "##움": 4901,
      "##압": 4902,
      "##뚝": 4903,
      "##긁": 4904,
      "##ㅟ": 4905,
      "##황": 4906,
      "##낌": 4907,
      "##특": 4908,
      "##균": 4909,
      "##댕": 4910,
      "##떤": 4911,
      "##첩": 4912,
      "##짭": 4913,
      "##닼": 4914,
      "##ㅌ": 4915,
      "##쑤": 4916,
      "##숨": 4917,
      "##률": 4918,
      "##엘": 4919,
      "##럴": 4920,
      "##묘": 4921,
      "##켸": 4922,
      "##즈": 4923,
      "##끔": 4924,
      "##댐": 4925,
      "##걷": 4926,
      "##댄": 4927,
      "##숸": 4928,
      "##M": 4929,
      "##F": 4930,
      "##휼": 4931,
      "##在": 4932,
      "##욧": 4933,
      "##닙": 4934,
      "##y": 4935,
      "##P": 4936,
      "##껌": 4937,
      "##쌔": 4938,
      "##램": 4939,
      "##🐥": 4940,
      "##씹": 4941,
      "##껴": 4942,
      "##찐": 4943,
      "##즁": 4944,
      "##녕": 4945,
      "##껏": 4946,
      "##숖": 4947,
      "##띄": 4948,
      "##몽": 4949,
      "##읋": 4950,
      "##춤": 4951,
      "##샅": 4952,
      "##퓨": 4953,
      "##튜": 4954,
      "##싸": 4955,
      "##빈": 4956,
      "##쩍": 4957,
      "##틴": 4958,
      "##ㅆ": 4959,
      "##깜": 4960,
      "##칫": 4961,
      "##뿡": 4962,
      "##메": 4963,
      "##쟁": 4964,
      "##궤": 4965,
      "##깍": 4966,
      "##쿵": 4967,
      "##😄": 4968,
      "##앵": 4969,
      "##쇽": 4970,
      "##션": 4971,
      "##붙": 4972,
      "##😱": 4973,
      "##😲": 4974,
      "##얀": 4975,
      "##밸": 4976,
      "##릿": 4977,
      "##늦": 4978,
      "##컨": 4979,
      "##롤": 4980,
      "##묵": 4981,
      "##쌩": 4982,
      "##릭": 4983,
      "##핸": 4984,
      "##찢": 4985,
      "##흘": 4986,
      "##헨": 4987,
      "##씬": 4988,
      "##봤": 4989,
      "##흐": 4990,
      "##쬐": 4991,
      "##낮": 4992,
      "##캤": 4993,
      "##납": 4994,
      "##홈": 4995,
      "##옶": 4996,
      "##덧": 4997,
      "##됩": 4998,
      "##벅": 4999,
      "##컵": 5000,
      "##돔": 5001,
      "##녈": 5002,
      "##윽": 5003,
      "##봇": 5004,
      "##쥐": 5005,
      "##맙": 5006,
      "##삽": 5007,
      "##읽": 5008,
      "##귀": 5009,
      "##B": 5010,
      "##찬": 5011,
      "##끗": 5012,
      "##붕": 5013,
      "##닐": 5014,
      "##츄": 5015,
      "##웅": 5016,
      "##횡": 5017,
      "##텼": 5018,
      "##삘": 5019,
      "##옮": 5020,
      "##꼰": 5021,
      "##쉬": 5022,
      "##킹": 5023,
      "##냈": 5024,
      "##빌": 5025,
      "##샊": 5026,
      "##💚": 5027,
      "##꽂": 5028,
      "##윗": 5029,
      "##랩": 5030,
      "##R": 5031,
      "##껀": 5032,
      "##멀": 5033,
      "##룡": 5034,
      "##객": 5035,
      "##뼈": 5036,
      "##흔": 5037,
      "##졋": 5038,
      "##랙": 5039,
      "##툭": 5040,
      "##튀": 5041,
      "##팬": 5042,
      "##궈": 5043,
      "##켱": 5044,
      "##푹": 5045,
      "##갬": 5046,
      "##칸": 5047,
      "##治": 5048,
      "##밟": 5049,
      "##낭": 5050,
      "##묻": 5051,
      "##덥": 5052,
      "##쪄": 5053,
      "##쌉": 5054,
      "##켓": 5055,
      "##촐": 5056,
      "##탱": 5057,
      "##뮈": 5058,
      "##×": 5059,
      "##봣": 5060,
      "##뮨": 5061,
      "##끌": 5062,
      "##픽": 5063,
      "##콘": 5064,
      "##팍": 5065,
      "##앨": 5066,
      "##닉": 5067,
      "##룰": 5068,
      "##셜": 5069,
      "##🏻": 5070,
      "##🇰": 5071,
      "##🇷": 5072,
      "##얄": 5073,
      "##끈": 5074,
      "##덮": 5075,
      "##쉰": 5076,
      "##ㅔ": 5077,
      "##볼": 5078,
      "##ᆞ": 5079,
      "##얔": 5080,
      "##쌓": 5081,
      "##꽈": 5082,
      "##슥": 5083,
      "##你": 5084,
      "##妈": 5085,
      "##的": 5086,
      "##狗": 5087,
      "##돤": 5088,
      "##짧": 5089,
      "##슘": 5090,
      "##잎": 5091,
      "##읺": 5092,
      "##딘": 5093,
      "##눠": 5094,
      "##쁨": 5095,
      "##늄": 5096,
      "##암": 5097,
      "##샋": 5098,
      "##곁": 5099,
      "##훅": 5100,
      "##😤": 5101,
      "##🤷": 5102,
      "##♂": 5103,
      "##뚫": 5104,
      "##째": 5105,
      "##켯": 5106,
      "##👎": 5107,
      "##센": 5108,
      "##닠": 5109,
      "##엮": 5110,
      "##굿": 5111,
      "##젊": 5112,
      "##칭": 5113,
      "##쌀": 5114,
      "##ㅕ": 5115,
      "##헐": 5116,
      "##큐": 5117,
      "##뤘": 5118,
      "##믄": 5119,
      "##촛": 5120,
      "##싱": 5121,
      "##쫏": 5122,
      "##됀": 5123,
      "##밝": 5124,
      "##즌": 5125,
      "##쳣": 5126,
      "##뎅": 5127,
      "##룬": 5128,
      "##싣": 5129,
      "##●": 5130,
      "##놨": 5131,
      "##앰": 5132,
      "##뱅": 5133,
      "##빻": 5134,
      "##델": 5135,
      "##밍": 5136,
      "##촌": 5137,
      "##😑": 5138,
      "##뀐": 5139,
      "##Q": 5140,
      "##퍽": 5141,
      "##낱": 5142,
      "##왈": 5143,
      "##밈": 5144,
      "##괘": 5145,
      "##멋": 5146,
      "##깡": 5147,
      "##딥": 5148,
      "##섀": 5149,
      "##밬": 5150,
      "##썼": 5151,
      "##웠": 5152,
      "##혔": 5153,
      "##헤": 5154,
      "##🖕": 5155,
      "##🤜": 5156,
      "##C": 5157,
      "##맡": 5158,
      "##🐴": 5159,
      "##꼼": 5160,
      "##↔": 5161,
      "##🇯": 5162,
      "##🇵": 5163,
      "##믁": 5164,
      "##쉑": 5165,
      "##엉": 5166,
      "##밴": 5167,
      "##짙": 5168,
      "##쌌": 5169,
      "##쓸": 5170,
      "##쁠": 5171,
      "##넉": 5172,
      "##첨": 5173,
      "##깢": 5174,
      "##섞": 5175,
      "##즐": 5176,
      "##샷": 5177,
      "##솥": 5178,
      "##옹": 5179,
      "##🔫": 5180,
      "##햄": 5181,
      "##텔": 5182,
      "##뱁": 5183,
      "##텨": 5184,
      "##💙": 5185,
      "##벙": 5186,
      "##쥤": 5187,
      "##짝": 5188,
      "##맏": 5189,
      "##솔": 5190,
      "##곹": 5191,
      "##뚜": 5192,
      "##롭": 5193,
      "##헝": 5194,
      "##깟": 5195,
      "##몈": 5196,
      "##템": 5197,
      "##돠": 5198,
      "##칼": 5199,
      "##샀": 5200,
      "##흑": 5201,
      "##셩": 5202,
      "##쫄": 5203,
      "##뿜": 5204,
      "##쓴": 5205,
      "##햐": 5206,
      "##👇": 5207,
      "##👊": 5208,
      "##읏": 5209,
      "##福": 5210,
      "##퉤": 5211,
      "##갤": 5212,
      "##쒜": 5213,
      "##♥": 5214,
      "##쁘": 5215,
      "##랖": 5216,
      "##멘": 5217,
      "##꿰": 5218,
      "##낀": 5219,
      "##짚": 5220,
      "##룹": 5221,
      "##☆": 5222,
      "##좄": 5223,
      "##삐": 5224,
      "##잣": 5225,
      "##꺠": 5226,
      "##폴": 5227,
      "##찡": 5228,
      "##섹": 5229,
      "##굔": 5230,
      "##몃": 5231,
      "##룩": 5232,
      "##벼": 5233,
      "##닝": 5234,
      "##웜": 5235,
      "##뒷": 5236,
      "##겧": 5237,
      "##💖": 5238,
      "##챠": 5239,
      "##딛": 5240,
      "##씻": 5241,
      "##펀": 5242,
      "##빔": 5243,
      "##웨": 5244,
      "##샛": 5245,
      "##켁": 5246,
      "##붇": 5247,
      "##놧": 5248,
      "##덯": 5249,
      "##넓": 5250,
      "##썹": 5251,
      "##삔": 5252,
      "##땡": 5253,
      "##짬": 5254,
      "##뽕": 5255,
      "##둡": 5256,
      "##쿡": 5257,
      "##뜸": 5258,
      "##륜": 5259,
      "##😇": 5260,
      "##🤣": 5261,
      "##뜬": 5262,
      "##헛": 5263,
      "##닫": 5264,
      "##쟉": 5265,
      "##젤": 5266,
      "##셍": 5267,
      "##햔": 5268,
      "##쐐": 5269,
      "##뻘": 5270,
      "##롬": 5271,
      "##넥": 5272,
      "##뫄": 5273,
      "##턱": 5274,
      "##팩": 5275,
      "##쫓": 5276,
      "##씰": 5277,
      "##깔": 5278,
      "##댘": 5279,
      "##쟎": 5280,
      "##닿": 5281,
      "##돟": 5282,
      "##늙": 5283,
      "##륙": 5284,
      "##😠": 5285,
      "##🙂": 5286,
      "##킥": 5287,
      "##➖": 5288,
      "##냉": 5289,
      "##싼": 5290,
      "##낙": 5291,
      "##휴": 5292,
      "##뀜": 5293,
      "##굵": 5294,
      "##❌": 5295,
      "##썌": 5296,
      "##눅": 5297,
      "##핏": 5298,
      "##넷": 5299,
      "##챡": 5300,
      "##엽": 5301,
      "##듀": 5302,
      "##둑": 5303,
      "##븐": 5304,
      "##흉": 5305,
      "##꿘": 5306,
      "##앚": 5307,
      "##겻": 5308,
      "##캔": 5309,
      "##뮤": 5310,
      "##뇬": 5311,
      "##랔": 5312,
      "##쏴": 5313,
      "##좡": 5314,
      "##뉘": 5315,
      "##뮛": 5316,
      "##맑": 5317,
      "##댈": 5318,
      "##슷": 5319,
      "##쌤": 5320,
      "##깃": 5321,
      "##섯": 5322,
      "##벨": 5323,
      "##짤": 5324,
      "##늬": 5325,
      "##等": 5326,
      "##🎉": 5327,
      "##🙏": 5328,
      "##겆": 5329,
      "##좁": 5330,
      "##냨": 5331,
      "##틱": 5332,
      "##멊": 5333,
      "##◘": 5334,
      "##숭": 5335,
      "##쟈": 5336,
      "##굳": 5337,
      "##짹": 5338,
      "##떵": 5339,
      "##쾌": 5340,
      "##눼": 5341,
      "##뷸": 5342,
      "##핟": 5343,
      "##♬": 5344,
      "##쨔": 5345,
      "##핀": 5346,
      "##뵤": 5347,
      "##켐": 5348,
      "##컬": 5349,
      "##✔": 5350,
      "##딨": 5351,
      "##☞": 5352,
      "##킬": 5353,
      "##★": 5354,
      "##낄": 5355,
      "##렙": 5356,
      "##켈": 5357,
      "##팸": 5358,
      "##😃": 5359,
      "##탠": 5360,
      "##좍": 5361,
      "##셈": 5362,
      "##섬": 5363,
      "##겡": 5364,
      "##ㄸ": 5365,
      "##뭡": 5366,
      "##댁": 5367,
      "##밭": 5368,
      "##냠": 5369,
      "##빙": 5370,
      "##톱": 5371,
      "##릏": 5372,
      "##끓": 5373,
      "##ㅃ": 5374,
      "##킵": 5375,
      "##챔": 5376,
      "##갰": 5377,
      "##졔": 5378,
      "##춘": 5379,
      "##볶": 5380,
      "##😰": 5381,
      "##잊": 5382,
      "##빗": 5383,
      "##샏": 5384,
      "##냇": 5385,
      "##푸": 5386,
      "##렉": 5387,
      "##ㅗ": 5388,
      "##헬": 5389,
      "##륵": 5390,
      "##엿": 5391,
      "##샡": 5392,
      "##긔": 5393,
      "##떄": 5394,
      "##쟌": 5395,
      "##쪼": 5396,
      "##젔": 5397,
      "##믈": 5398,
      "##엠": 5399,
      "##돗": 5400,
      "##갸": 5401,
      "##→": 5402,
      "##샆": 5403,
      "##잏": 5404,
      "##뻐": 5405,
      "##짘": 5406,
      "##퓰": 5407,
      "##檢": 5408,
      "##곘": 5409,
      "##☺": 5410,
      "##껍": 5411,
      "##졍": 5412,
      "##넠": 5413,
      "##돴": 5414,
      "##쯧": 5415,
      "##빚": 5416,
      "##밤": 5417,
      "##갂": 5418,
      "##콧": 5419,
      "##🤗": 5420,
      "##👣": 5421,
      "##눙": 5422,
      "##좆": 5423,
      "##굽": 5424,
      "##J": 5425,
      "##w": 5426,
      "##쉴": 5427,
      "##즤": 5428,
      "##듸": 5429,
      "##싯": 5430,
      "##펴": 5431,
      "##ᆫ": 5432,
      "##곱": 5433,
      "##😍": 5434,
      "##🌷": 5435,
      "##🎆": 5436,
      "##🎊": 5437,
      "##닏": 5438,
      "##잼": 5439,
      "##콤": 5440,
      "##😘": 5441,
      "##🐉": 5442,
      "##밑": 5443,
      "##셉": 5444,
      "##몆": 5445,
      "##🤩": 5446,
      "##숫": 5447,
      "##엑": 5448,
      "##年": 5449,
      "##💸": 5450,
      "##뽄": 5451,
      "##💢": 5452,
      "##쳘": 5453,
      "##깠": 5454,
      "##셥": 5455,
      "##맴": 5456,
      "##룸": 5457,
      "##녔": 5458,
      "##が": 5459,
      "##か": 5460,
      "##っ": 5461,
      "##た": 5462,
      "##ら": 5463,
      "##政": 5464,
      "##や": 5465,
      "##お": 5466,
      "##金": 5467,
      "##名": 5468,
      "##無": 5469,
      "##♪": 5470,
      "##캍": 5471,
      "##쫒": 5472,
      "##찼": 5473,
      "##븽": 5474,
      "##믹": 5475,
      "##몾": 5476,
      "##옌": 5477,
      "##웟": 5478,
      "##랗": 5479,
      "##싹": 5480,
      "##事": 5481,
      "##然": 5482,
      "##룽": 5483,
      "##셀": 5484,
      "##찟": 5485,
      "##곧": 5486,
      "##흠": 5487,
      "##켠": 5488,
      "##늟": 5489,
      "##쏙": 5490,
      "##릅": 5491,
      "##꼇": 5492,
      "##넬": 5493,
      "##뗄": 5494,
      "##괄": 5495,
      "##🐶": 5496,
      "##닞": 5497,
      "##훠": 5498,
      "##줏": 5499,
      "##셧": 5500,
      "##젝": 5501,
      "##링": 5502,
      "##룻": 5503,
      "##겎": 5504,
      "##즉": 5505,
      "##웤": 5506,
      "##땨": 5507,
      "##뎨": 5508,
      "##덤": 5509,
      "##닮": 5510,
      "##썬": 5511,
      "##껭": 5512,
      "##숩": 5513,
      "##꼽": 5514,
      "##췌": 5515,
      "##←": 5516,
      "##잌": 5517,
      "##긱": 5518,
      "##랰": 5519,
      "##웹": 5520,
      "##ㅘ": 5521,
      "##읇": 5522,
      "##섲": 5523,
      "##츨": 5524,
      "##솰": 5525,
      "##갗": 5526,
      "##L": 5527,
      "##핫": 5528,
      "##먄": 5529,
      "##캠": 5530,
      "##푯": 5531,
      "##쯔": 5532,
      "##벳": 5533,
      "##춰": 5534,
      "##엊": 5535,
      "##벵": 5536,
      "##펜": 5537,
      "##뽁": 5538,
      "##덴": 5539,
      "##겜": 5540,
      "##핍": 5541,
      "##탑": 5542,
      "##몬": 5543,
      "##맬": 5544,
      "##썻": 5545,
      "##펙": 5546,
      "##셕": 5547,
      "##밪": 5548,
      "##윌": 5549,
      "##텀": 5550,
      "##😪": 5551,
      "##멕": 5552,
      "##쿨": 5553,
      "##흡": 5554,
      "##⃣": 5555,
      "##둣": 5556,
      "##롯": 5557,
      "##쭉": 5558,
      "##뾰": 5559,
      "##떴": 5560,
      "##둠": 5561,
      "##겝": 5562,
      "##🐑": 5563,
      "##튈": 5564,
      "##쨋": 5565,
      "##빋": 5566,
      "##껬": 5567,
      "##쨍": 5568,
      "##썰": 5569,
      "##밎": 5570,
      "##땄": 5571,
      "##렘": 5572,
      "##딲": 5573,
      "##갹": 5574,
      "##朴": 5575,
      "##핧": 5576,
      "##땃": 5577,
      "##듭": 5578,
      "##긒": 5579,
      "##쩐": 5580,
      "##믐": 5581,
      "##겅": 5582,
      "##十": 5583,
      "##🐦": 5584,
      "##삿": 5585,
      "##얺": 5586,
      "##붓": 5587,
      "##렛": 5588,
      "##👿": 5589,
      "##킷": 5590,
      "##💕": 5591,
      "##🎈": 5592,
      "##🎶": 5593,
      "##렵": 5594,
      "##펄": 5595,
      "##💛": 5596,
      "##🧡": 5597,
      "##💜": 5598,
      "##켔": 5599,
      "##톈": 5600,
      "##쭈": 5601,
      "##낑": 5602,
      "##릎": 5603,
      "##툽": 5604,
      "##컴": 5605,
      "##씽": 5606,
      "##す": 5607,
      "##る": 5608,
      "##♣": 5609,
      "##😞": 5610,
      "##뺄": 5611,
      "##샐": 5612,
      "##딤": 5613,
      "##잭": 5614,
      "##펼": 5615,
      "##줍": 5616,
      "##꽉": 5617,
      "##샣": 5618,
      "##外": 5619,
      "##쿄": 5620,
      "##쏠": 5621,
      "##ㅑ": 5622,
      "##깤": 5623,
      "##롲": 5624,
      "##썽": 5625,
      "##벋": 5626,
      "##솝": 5627,
      "##붜": 5628,
      "##뽈": 5629,
      "##퐁": 5630,
      "##뺌": 5631,
      "##흰": 5632,
      "##딕": 5633,
      "##뀔": 5634,
      "##씁": 5635,
      "##좉": 5636,
      "##쬬": 5637,
      "##툐": 5638,
      "##빅": 5639,
      "##솨": 5640,
      "##칀": 5641,
      "##갉": 5642,
      "##밋": 5643,
      "##풋": 5644,
      "##잤": 5645,
      "##츌": 5646,
      "##왠": 5647,
      "##읻": 5648,
      "##🌸": 5649,
      "##뮬": 5650,
      "##갯": 5651,
      "##쟝": 5652,
      "##꼅": 5653,
      "##뱍": 5654,
      "##뎃": 5655,
      "##뗐": 5656,
      "##쌈": 5657,
      "##깉": 5658,
      "##첬": 5659,
      "##콰": 5660,
      "##뗴": 5661,
      "##⚡": 5662,
      "##벞": 5663,
      "##궐": 5664,
      "##싴": 5665,
      "##道": 5666,
      "##要": 5667,
      "##们": 5668,
      "##地": 5669,
      "##吗": 5670,
      "##닷": 5671,
      "##뱃": 5672,
      "##긷": 5673,
      "##○": 5674,
      "##촘": 5675,
      "##랠": 5676,
      "##붉": 5677,
      "##돚": 5678,
      "##얷": 5679,
      "##꾜": 5680,
      "##쾅": 5681,
      "##챌": 5682,
      "##죸": 5683,
      "##쫑": 5684,
      "##춥": 5685,
      "##李": 5686,
      "##괸": 5687,
      "##끠": 5688,
      "##젓": 5689,
      "##솎": 5690,
      "##굼": 5691,
      "##캘": 5692,
      "##밨": 5693,
      "##멎": 5694,
      "##쎅": 5695,
      "##ㅛ": 5696,
      "##벤": 5697,
      "##쓱": 5698,
      "##▶": 5699,
      "##웩": 5700,
      "##ョ": 5701,
      "##リ": 5702,
      "##쭝": 5703,
      "##🕊": 5704,
      "##캄": 5705,
      "##낚": 5706,
      "##쌰": 5707,
      "##팰": 5708,
      "##🚫": 5709,
      "##뿝": 5710,
      "##엏": 5711,
      "##듷": 5712,
      "##꽝": 5713,
      "##🤫": 5714,
      "##똬": 5715,
      "##🏼": 5716,
      "##🤏": 5717,
      "##😷": 5718,
      "##갠": 5719,
      "##탹": 5720,
      "##🐍": 5721,
      "##뉸": 5722,
      "##늣": 5723,
      "##닻": 5724,
      "##틈": 5725,
      "##🙊": 5726,
      "##😮": 5727,
      "##퀘": 5728,
      "##뺐": 5729,
      "##겉": 5730,
      "##國": 5731,
      "##共": 5732,
      "##黨": 5733,
      "##必": 5734,
      "##滅": 5735,
      "##亡": 5736,
      "##😀": 5737,
      "##쨈": 5738,
      "##랼": 5739,
      "##낰": 5740,
      "##놋": 5741,
      "##샌": 5742,
      "##者": 5743,
      "##깅": 5744,
      "##쑨": 5745,
      "##😗": 5746,
      "##学": 5747,
      "##了": 5748,
      "##多": 5749,
      "##语": 5750,
      "##쾨": 5751,
      "##쌥": 5752,
      "##숟": 5753,
      "##얹": 5754,
      "##▲": 5755,
      "##ㅖ": 5756,
      "##곽": 5757,
      "##륨": 5758,
      "##웬": 5759,
      "##헀": 5760,
      "##댑": 5761,
      "##뗏": 5762,
      "##죈": 5763,
      "##닳": 5764,
      "##섴": 5765,
      "##쐈": 5766,
      "##읎": 5767,
      "##꼐": 5768,
      "##숍": 5769,
      "##숱": 5770,
      "##걍": 5771,
      "##닜": 5772,
      "##탔": 5773,
      "##썸": 5774,
      "##슙": 5775,
      "##뒹": 5776,
      "##컹": 5777,
      "##숴": 5778,
      "##👨": 5779,
      "##⚖": 5780,
      "##😛": 5781,
      "##듲": 5782,
      "##캑": 5783,
      "##쉣": 5784,
      "##自": 5785,
      "##😓": 5786,
      "##빽": 5787,
      "##껐": 5788,
      "##ㅒ": 5789,
      "##젯": 5790,
      "##앖": 5791,
      "##텁": 5792,
      "##녜": 5793,
      "##쎈": 5794,
      "##옛": 5795,
      "##넜": 5796,
      "##슾": 5797,
      "##믾": 5798,
      "##쏟": 5799,
      "##묭": 5800,
      "##엨": 5801,
      "##뺘": 5802,
      "##💣": 5803,
      "##日": 5804,
      "##罪": 5805,
      "##で": 5806,
      "##さ": 5807,
      "##れ": 5808,
      "##뽜": 5809,
      "##됄": 5810,
      "##쁩": 5811,
      "##눤": 5812,
      "##귱": 5813,
      "##꿉": 5814,
      "##엣": 5815,
      "##칵": 5816,
      "##읗": 5817,
      "##뱀": 5818,
      "##ᅡ": 5819,
      "##팁": 5820,
      "##훨": 5821,
      "##뗀": 5822,
      "##녓": 5823,
      "##죵": 5824,
      "##쭌": 5825,
      "##윙": 5826,
      "##깥": 5827,
      "##✊": 5828,
      "##😜": 5829,
      "##뷱": 5830,
      "##뜽": 5831,
      "##짒": 5832,
      "##둿": 5833,
      "##뙈": 5834,
      "##좇": 5835,
      "##캬": 5836,
      "##굶": 5837,
      "##펑": 5838,
      "##톨": 5839,
      "##렿": 5840,
      "##～": 5841,
      "##옇": 5842,
      "##텅": 5843,
      "##씸": 5844,
      "##곀": 5845,
      "##🐵": 5846,
      "##뜩": 5847,
      "##뎀": 5848,
      "##멜": 5849,
      "##😬": 5850,
      "##뫠": 5851,
      "##섁": 5852,
      "##휜": 5853,
      "##▷": 5854,
      "##봬": 5855,
      "##쇡": 5856,
      "##뤡": 5857,
      "##펭": 5858,
      "##툼": 5859,
      "##즙": 5860,
      "##섰": 5861,
      "##걩": 5862,
      "##部": 5863,
      "##の": 5864,
      "##人": 5865,
      "##ち": 5866,
      "##を": 5867,
      "##見": 5868,
      "##て": 5869,
      "##빤": 5870,
      "##👙": 5871,
      "##😡": 5872,
      "##밷": 5873,
      "##삥": 5874,
      "##鮮": 5875,
      "##頭": 5876,
      "##し": 5877,
      "##い": 5878,
      "##カ": 5879,
      "##랒": 5880,
      "##킈": 5881,
      "##칩": 5882,
      "##퍌": 5883,
      "##件": 5884,
      "##짆": 5885,
      "##잋": 5886,
      "##뢔": 5887,
      "##츼": 5888,
      "##땀": 5889,
      "##🤢": 5890,
      "##퍈": 5891,
      "##픕": 5892,
      "##킴": 5893,
      "##뢀": 5894,
      "##넸": 5895,
      "##첫": 5896,
      "##😆": 5897,
      "##짴": 5898,
      "##끙": 5899,
      "##🤬": 5900,
      "##뻑": 5901,
      "##옘": 5902,
      "##떈": 5903,
      "##춧": 5904,
      "##폔": 5905,
      "##뛸": 5906,
      "##냑": 5907,
      "##놐": 5908,
      "##귁": 5909,
      "##욬": 5910,
      "##맄": 5911,
      "##쨉": 5912,
      "##🤔": 5913,
      "##봥": 5914,
      "##띌": 5915,
      "##🔥": 5916,
      "##괵": 5917,
      "##뿍": 5918,
      "##😝": 5919,
      "##솟": 5920,
      "##✨": 5921,
      "##쪘": 5922,
      "##첵": 5923,
      "##닺": 5924,
      "##文": 5925,
      "##統": 5926,
      "##싷": 5927,
      "##싑": 5928,
      "##컥": 5929,
      "##쏜": 5930,
      "##볕": 5931,
      "##읭": 5932,
      "##칮": 5933,
      "##🇨": 5934,
      "##🇳": 5935,
      "##뼉": 5936,
      "##핰": 5937,
      "##밉": 5938,
      "##且": 5939,
      "##您": 5940,
      "##计": 5941,
      "##划": 5942,
      "##放": 5943,
      "##火": 5944,
      "##和": 5945,
      "##力": 5946,
      "##맺": 5947,
      "##혓": 5948,
      "##왼": 5949,
      "##썪": 5950,
      "##팝": 5951,
      "##캉": 5952,
      "##몿": 5953,
      "##볘": 5954,
      "##햌": 5955,
      "##엤": 5956,
      "##캡": 5957,
      "##몐": 5958,
      "##꿧": 5959,
      "##줴": 5960,
      "##긕": 5961,
      "##❣": 5962,
      "##찝": 5963,
      "##벧": 5964,
      "##캌": 5965,
      "##👹": 5966,
      "##👤": 5967,
      "##👥": 5968,
      "##릐": 5969,
      "##뎠": 5970,
      "##겋": 5971,
      "##뚤": 5972,
      "##킅": 5973,
      "##잿": 5974,
      "##쥑": 5975,
      "##짔": 5976,
      "##폈": 5977,
      "##핌": 5978,
      "##쳔": 5979,
      "##짰": 5980,
      "##뇽": 5981,
      "##똔": 5982,
      "##🐈": 5983,
      "##앓": 5984,
      "##듵": 5985,
      "##톄": 5986,
      "##잟": 5987,
      "##띵": 5988,
      "##🦀": 5989,
      "##🐾": 5990,
      "##랸": 5991,
      "##짠": 5992,
      "##以": 5993,
      "##说": 5994,
      "##此": 5995,
      "##吧": 5996,
      "##哈": 5997,
      "##렼": 5998,
      "##꽤": 5999,
      "##푠": 6000,
      "##늫": 6001,
      "##팼": 6002,
      "##먀": 6003,
      "##쯥": 6004,
      "##🦜": 6005,
      "##国": 6006,
      "##反": 6007,
      "##あ": 6008,
      "##잪": 6009,
      "##믜": 6010,
      "##뇸": 6011,
      "##큿": 6012,
      "##쑝": 6013,
      "##홧": 6014,
      "##몀": 6015,
      "##넿": 6016,
      "##安": 6017,
      "##什": 6018,
      "##么": 6019,
      "##젭": 6020,
      "##有": 6021,
      "##那": 6022,
      "##本": 6023,
      "##不": 6024,
      "##体": 6025,
      "##精": 6026,
      "##神": 6027,
      "##햬": 6028,
      "##햅": 6029,
      "##틸": 6030,
      "##셯": 6031,
      "##낯": 6032,
      "##깄": 6033,
      "##쌕": 6034,
      "##봘": 6035,
      "##훤": 6036,
      "##뽂": 6037,
      "##딍": 6038,
      "##삻": 6039,
      "##쟘": 6040,
      "##🕷": 6041,
      "##쀼": 6042,
      "##믓": 6043,
      "##쉥": 6044,
      "##떰": 6045,
      "##밣": 6046,
      "##쁀": 6047,
      "##思": 6048,
      "##줭": 6049,
      "##갇": 6050,
      "##꾀": 6051,
      "##₩": 6052,
      "##튱": 6053,
      "##섕": 6054,
      "##꽌": 6055,
      "##갘": 6056,
      "##샵": 6057,
      "##닛": 6058,
      "##볓": 6059,
      "##쳥": 6060,
      "##넴": 6061,
      "##컸": 6062,
      "##ㅢ": 6063,
      "##💀": 6064,
      "##럾": 6065,
      "##😈": 6066,
      "##맠": 6067,
      "##쉨": 6068,
      "##띁": 6069,
      "##윳": 6070,
      "##렐": 6071,
      "##엥": 6072,
      "##✂": 6073,
      "##🌙": 6074,
      "##듼": 6075,
      "##얽": 6076,
      "##폇": 6077,
      "##옄": 6078,
      "##꺽": 6079,
      "##꿍": 6080,
      "##뷔": 6081,
      "##훗": 6082,
      "##쌬": 6083,
      "##궜": 6084,
      "##왁": 6085,
      "##힙": 6086,
      "##끅": 6087,
      "##쉼": 6088,
      "##똒": 6089,
      "##됴": 6090,
      "##깁": 6091,
      "##껑": 6092,
      "##곶": 6093,
      "##핬": 6094,
      "##쨩": 6095,
      "##🙉": 6096,
      "##롴": 6097,
      "##쇗": 6098,
      "##뜷": 6099,
      "##☠": 6100,
      "##욘": 6101,
      "##👈": 6102,
      "##헸": 6103,
      "##쎼": 6104,
      "##즹": 6105,
      "##껒": 6106,
      "##읶": 6107,
      "##컫": 6108,
      "##빕": 6109,
      "##쳇": 6110,
      "##🦧": 6111,
      "##🦍": 6112,
      "##合": 6113,
      "##봌": 6114,
      "##럐": 6115,
      "##퇄": 6116,
      "##졀": 6117,
      "##툴": 6118,
      "##텡": 6119,
      "##웰": 6120,
      "##꼿": 6121,
      "##쑥": 6122,
      "##쨌": 6123,
      "##😨": 6124,
      "##쒼": 6125,
      "##좨": 6126,
      "##겂": 6127,
      "##쮸": 6128,
      "##췬": 6129,
      "##췄": 6130,
      "##世": 6131,
      "##入": 6132,
      "##탤": 6133,
      "##냬": 6134,
      "##캣": 6135,
      "##😎": 6136,
      "##촟": 6137,
      "##띤": 6138,
      "##맣": 6139,
      "##웡": 6140,
      "##솬": 6141,
      "##맷": 6142,
      "##졉": 6143,
      "##찣": 6144,
      "##샴": 6145,
      "##젹": 6146,
      "##💯": 6147,
      "##🍒": 6148,
      "##붐": 6149,
      "##꿋": 6150,
      "##폼": 6151,
      "##💐": 6152,
      "##🍏": 6153,
      "##흙": 6154,
      "##뭄": 6155,
      "##폄": 6156,
      "##맀": 6157,
      "##☹": 6158,
      "##딪": 6159,
      "##子": 6160,
      "##셌": 6161,
      "##봨": 6162,
      "##롼": 6163,
      "##쭘": 6164,
      "##횃": 6165,
      "##깸": 6166,
      "##욌": 6167,
      "##✖": 6168,
      "##넋": 6169,
      "##̄": 6170,
      "##̈": 6171,
      "##꙼": 6172,
      "##̆": 6173,
      "##̎": 6174,
      "##̐": 6175,
      "##̊": 6176,
      "##캥": 6177,
      "##同": 6178,
      "##🎗": 6179,
      "##깩": 6180,
      "##슼": 6181,
      "##싄": 6182,
      "##쏨": 6183,
      "##쉒": 6184,
      "##옺": 6185,
      "##훍": 6186,
      "##뜰": 6187,
      "##첮": 6188,
      "##🐙": 6189,
      "##볍": 6190,
      "##냘": 6191,
      "##챘": 6192,
      "##딹": 6193,
      "##잽": 6194,
      "##숯": 6195,
      "##😢": 6196,
      "##👑": 6197,
      "##쥼": 6198,
      "##햿": 6199,
      "##숼": 6200,
      "##홥": 6201,
      "##걔": 6202,
      "##싲": 6203,
      "##🪓": 6204,
      "##몹": 6205,
      "##퀄": 6206,
      "##샙": 6207,
      "##넨": 6208,
      "##民": 6209,
      "##뷴": 6210,
      "##귤": 6211,
      "##面": 6212,
      "##中": 6213,
      "##当": 6214,
      "##爸": 6215,
      "##튭": 6216,
      "##짢": 6217,
      "##츈": 6218,
      "##횽": 6219,
      "##뉨": 6220,
      "##듈": 6221,
      "##떽": 6222,
      "##펏": 6223,
      "##쩨": 6224,
      "##は": 6225,
      "##わ": 6226,
      "##な": 6227,
      "##だ": 6228,
      "##ㅝ": 6229,
      "##쒀": 6230,
      "##뱔": 6231,
      "##没": 6232,
      "##ろ": 6233,
      "##う": 6234,
      "##젛": 6235,
      "##겤": 6236,
      "##쥔": 6237,
      "##□": 6238,
      "##因": 6239,
      "##己": 6240,
      "##啊": 6241,
      "##害": 6242,
      "##⚠": 6243,
      "##짼": 6244,
      "##뺀": 6245,
      "##🔪": 6246,
      "##댱": 6247,
      "##是": 6248,
      "##白": 6249,
      "##生": 6250,
      "##둰": 6251,
      "##넙": 6252,
      "##밯": 6253,
      "##뮌": 6254,
      "##😩": 6255,
      "##쿰": 6256,
      "##🤛": 6257,
      "##킁": 6258,
      "##뒨": 6259,
      "##맂": 6260,
      "##캇": 6261,
      "##🦆": 6262,
      "##괭": 6263,
      "##쿤": 6264,
      "##냣": 6265,
      "##틍": 6266,
      "##市": 6267,
      "##뎁": 6268,
      "##샜": 6269,
      "##힉": 6270,
      "##三": 6271,
      "##팠": 6272,
      "##탬": 6273,
      "##🌈": 6274,
      "##💥": 6275,
      "##美": 6276,
      "##몄": 6277,
      "##빳": 6278,
      "##훕": 6279,
      "##탉": 6280,
      "##앴": 6281,
      "##욍": 6282,
      "##💓": 6283,
      "##꺾": 6284,
      "##잨": 6285,
      "##😁": 6286,
      "##🤨": 6287,
      "##字": 6288,
      "##뀝": 6289,
      "##｀": 6290,
      "##ヽ": 6291,
      "##룔": 6292,
      "##엌": 6293,
      "##쑬": 6294,
      "##맵": 6295,
      "##上": 6296,
      "##챤": 6297,
      "##😫": 6298,
      "##🥺": 6299,
      "##뽐": 6300,
      "##깬": 6301,
      "##숑": 6302,
      "##탭": 6303,
      "##늑": 6304,
      "##🤚": 6305,
      "##쌨": 6306,
      "##😅": 6307,
      "##🙃": 6308,
      "##😉": 6309,
      "##😊": 6310,
      "##🥰": 6311,
      "##😙": 6312,
      "##😚": 6313,
      "##😋": 6314,
      "##使": 6315,
      "##光": 6316,
      "##🔴": 6317,
      "##🔵": 6318,
      "##궄": 6319,
      "##훌": 6320,
      "##펌": 6321,
      "##✳": 6322,
      "##욥": 6323,
      "##궂": 6324,
      "##겍": 6325,
      "##뤠": 6326,
      "##ㅙ": 6327,
      "##🚩": 6328,
      "##ン": 6329,
      "##食": 6330,
      "##핥": 6331,
      "##떧": 6332,
      "##헿": 6333,
      "##죕": 6334,
      "##뗌": 6335,
      "##앟": 6336,
      "##툰": 6337,
      "##發": 6338,
      "##잩": 6339,
      "##헙": 6340,
      "##읜": 6341,
      "##🤭": 6342,
      "##셤": 6343,
      "##맟": 6344,
      "##쥘": 6345,
      "##쓔": 6346,
      "##쐑": 6347,
      "##뱡": 6348,
      "##쳬": 6349,
      "##찹": 6350,
      "##붘": 6351,
      "##콥": 6352,
      "##곰": 6353,
      "##习": 6354,
      "##我": 6355,
      "##쎔": 6356,
      "##쉭": 6357,
      "##귝": 6358,
      "##잰": 6359,
      "##쟤": 6360,
      "##뻣": 6361,
      "##💦": 6362,
      "##볌": 6363,
      "##됭": 6364,
      "##갛": 6365,
      "##쌋": 6366,
      "##笑": 6367,
      "##펠": 6368,
      "##샥": 6369,
      "##횐": 6370,
      "##펨": 6371,
      "##팟": 6372,
      "##줃": 6373,
      "##헜": 6374,
      "##훻": 6375,
      "##代": 6376,
      "##王": 6377,
      "##韓": 6378,
      "##♧": 6379,
      "##땩": 6380,
      "##줒": 6381,
      "##챃": 6382,
      "##챗": 6383,
      "##解": 6384,
      "##🥲": 6385,
      "##굉": 6386,
      "##㎞": 6387,
      "##꽥": 6388,
      "##뺑": 6389,
      "##쑵": 6390,
      "##쿸": 6391,
      "##뽤": 6392,
      "##퀀": 6393,
      "##뵐": 6394,
      "##덪": 6395,
      "##빱": 6396,
      "##맜": 6397,
      "##밐": 6398,
      "##🤪": 6399,
      "##女": 6400,
      "##權": 6401,
      "##꿇": 6402,
      "##햘": 6403,
      "##쭐": 6404,
      "##處": 6405,
      "##分": 6406,
      "##퐈": 6407,
      "##😒": 6408,
      "##렣": 6409,
      "##💫": 6410,
      "##홱": 6411,
      "##샾": 6412,
      "##귈": 6413,
      "##톰": 6414,
      "##췁": 6415,
      "##쿼": 6416,
      "##땝": 6417,
      "##줙": 6418,
      "##😭": 6419,
      "##됌": 6420,
      "##🧐": 6421,
      "##🙈": 6422,
      "##🤯": 6423,
      "##꾤": 6424,
      "##닸": 6425,
      "##똠": 6426,
      "##튓": 6427,
      "##✋": 6428,
      "##즛": 6429,
      "##쾡": 6430,
      "##톼": 6431,
      "##쐬": 6432,
      "##🧟": 6433,
      "##👻": 6434,
      "##😥": 6435,
      "##뭣": 6436,
      "##맇": 6437,
      "##쮜": 6438,
      "##쏫": 6439,
      "##不": 6440,
      "##쇆": 6441,
      "##궹": 6442,
      "##家": 6443,
      "##个": 6444,
      "##武": 6445,
      "##制": 6446,
      "##出": 6447,
      "##来": 6448,
      "##就": 6449,
      "##用": 6450,
      "##过": 6451,
      "##찻": 6452,
      "##🔔": 6453,
      "##☻": 6454,
      "##텋": 6455,
      "##콸": 6456,
      "##킼": 6457,
      "##몌": 6458,
      "##뵙": 6459,
      "##鲜": 6460,
      "##才": 6461,
      "##正": 6462,
      "##옿": 6463,
      "##얐": 6464,
      "##젗": 6465,
      "##햤": 6466,
      "##物": 6467,
      "##휸": 6468,
      "##죳": 6469,
      "##먿": 6470,
      "##땋": 6471,
      "##퍠": 6472,
      "##칬": 6473,
      "##心": 6474,
      "##팜": 6475,
      "##🖐": 6476,
      "##샨": 6477,
      "##㎡": 6478,
      "##🤴": 6479,
      "##尔": 6480,
      "##一": 6481,
      "##首": 6482,
      "##都": 6483,
      "##还": 6484,
      "##如": 6485,
      "##二": 6486,
      "##发": 6487,
      "##感": 6488,
      "##❓": 6489,
      "##깻": 6490,
      "##넛": 6491,
      "##💩": 6492,
      "##둗": 6493,
      "##🍅": 6494,
      "##👄": 6495,
      "##🔇": 6496,
      "##슝": 6497,
      "##法": 6498,
      "##に": 6499,
      "##口": 6500,
      "##そ": 6501,
      "##ん": 6502,
      "##🦊": 6503,
      "##☀": 6504,
      "##눴": 6505,
      "##엾": 6506,
      "##뱐": 6507,
      "##🍎": 6508,
      "##🦅": 6509,
      "##앳": 6510,
      "##뮹": 6511,
      "##벡": 6512,
      "##럄": 6513,
      "##쭙": 6514,
      "##츰": 6515,
      "##땍": 6516,
      "##뻤": 6517,
      "##🎵": 6518,
      "##윅": 6519,
      "##슐": 6520,
      "##텃": 6521,
      "##犬": 6522,
      "##大": 6523,
      "##示": 6524,
      "##威": 6525,
      "##血": 6526,
      "##而": 6527,
      "##英": 6528,
      "##븅": 6529,
      "##잆": 6530,
      "##돨": 6531,
      "##짯": 6532,
      "##녘": 6533,
      "##짊": 6534,
      "##흫": 6535,
      "##읹": 6536,
      "##횟": 6537,
      "##🌕": 6538,
      "##깈": 6539,
      "##졓": 6540,
      "##붑": 6541,
      "##쓉": 6542,
      "##볏": 6543,
      "##휠": 6544,
      "##묜": 6545,
      "##뤌": 6546,
      "##📣": 6547,
      "##덫": 6548,
      "##콴": 6549,
      "##븥": 6550,
      "##뭍": 6551,
      "##♩": 6552,
      "##퀵": 6553,
      "##솓": 6554,
      "##ス": 6555,
      "##ル": 6556,
      "##💞": 6557,
      "##삑": 6558,
      "##늼": 6559,
      "##핮": 6560,
      "##헁": 6561,
      "##뎐": 6562,
      "##🔞": 6563,
      "##刀": 6564,
      "##듦": 6565,
      "##空": 6566,
      "##읅": 6567,
      "##未": 6568,
      "##开": 6569,
      "##化": 6570,
      "##슁": 6571,
      "##켕": 6572,
      "##곪": 6573,
      "##🐇": 6574,
      "##돜": 6575,
      "##덟": 6576,
      "##눕": 6577,
      "##켄": 6578,
      "##큘": 6579,
      "##쟜": 6580,
      "##🌻": 6581,
      "##쎜": 6582,
      "##🤦": 6583,
      "##퍄": 6584,
      "##읉": 6585,
      "##먕": 6586,
      "##룐": 6587,
      "##뙤": 6588,
      "##씅": 6589,
      "##촞": 6590,
      "##쫘": 6591,
      "##곷": 6592,
      "##꿁": 6593,
      "##뗘": 6594,
      "##믽": 6595,
      "##핼": 6596,
      "##홰": 6597,
      "##곌": 6598,
      "##前": 6599,
      "##党": 6600,
      "##짦": 6601,
      "##잍": 6602,
      "##👺": 6603,
      "##볻": 6604,
      "##켭": 6605,
      "##쥥": 6606,
      "##▪": 6607,
      "##쉔": 6608,
      "##귓": 6609,
      "##↑": 6610,
      "##걀": 6611,
      "##뜀": 6612,
      "##툥": 6613,
      "##着": 6614,
      "##韩": 6615,
      "##棒": 6616,
      "##怎": 6617,
      "##这": 6618,
      "##酸": 6619,
      "##呢": 6620,
      "##꿨": 6621,
      "##벚": 6622,
      "##깰": 6623,
      "##꿜": 6624,
      "##좝": 6625,
      "##긇": 6626,
      "##넝": 6627,
      "##읁": 6628,
      "##뒬": 6629,
      "##÷": 6630,
      "##앋": 6631,
      "##콱": 6632,
      "##❗": 6633,
      "##🤑": 6634,
      "##햠": 6635,
      "##밞": 6636,
      "##붛": 6637,
      "##댤": 6638,
      "##츙": 6639,
      "##숲": 6640,
      "##땔": 6641,
      "##윘": 6642,
      "##も": 6643,
      "##셴": 6644,
      "##싀": 6645,
      "##👽": 6646,
      "##为": 6647,
      "##到": 6648,
      "##🗡": 6649,
      "##🥱": 6650,
      "##쩠": 6651,
      "##望": 6652,
      "##后": 6653,
      "##身": 6654,
      "##🍀": 6655,
      "##얗": 6656,
      "##롷": 6657,
      "##뛴": 6658,
      "##🚀": 6659,
      "##🙋": 6660,
      "##쥭": 6661,
      "##늗": 6662,
      "##챦": 6663,
      "##놉": 6664,
      "##푱": 6665,
      "##🙌": 6666,
      "##잫": 6667,
      "##얇": 6668,
      "##🦴": 6669,
      "##웍": 6670,
      "##힛": 6671,
      "##둉": 6672,
      "##🙄": 6673,
      "##뉜": 6674,
      "##싢": 6675,
      "##쥣": 6676,
      "##💏": 6677,
      "##👩": 6678,
      "##👧": 6679,
      "##👦": 6680,
      "##🌺": 6681,
      "##🌼": 6682,
      "##💑": 6683,
      "##⚘": 6684,
      "##틋": 6685,
      "##릍": 6686,
      "##읕": 6687,
      "##理": 6688,
      "##뵜": 6689,
      "##퉈": 6690,
      "##챵": 6691,
      "##샬": 6692,
      "##🌶": 6693,
      "##可": 6694,
      "##氏": 6695,
      "##🐰": 6696,
      "##🍼": 6697,
      "##쪌": 6698,
      "##듫": 6699,
      "##굻": 6700,
      "##굥": 6701,
      "##界": 6702,
      "##햑": 6703,
      "##흭": 6704,
      "##잗": 6705,
      "##젴": 6706,
      "##🐎": 6707,
      "##섣": 6708,
      "##쫍": 6709,
      "##횔": 6710,
      "##↓": 6711,
      "##🐒": 6712,
      "##셱": 6713,
      "##쏭": 6714,
      "##빰": 6715,
      "##롄": 6716,
      "##걑": 6717,
      "##궘": 6718,
      "##팤": 6719,
      "##돋": 6720,
      "##먈": 6721,
      "##🥶": 6722,
      "##쥰": 6723,
      "##主": 6724,
      "##明": 6725,
      "##👅": 6726,
      "##쨀": 6727,
      "##헉": 6728,
      "##🐤": 6729,
      "##홓": 6730,
      "##맸": 6731,
      "##웁": 6732,
      "##と": 6733,
      "##ま": 6734,
      "##멩": 6735,
      "##헣": 6736,
      "##👴": 6737,
      "##👆": 6738,
      "##让": 6739,
      "##听": 6740,
      "##话": 6741,
      "##햣": 6742,
      "##쉅": 6743,
      "##🇺": 6744,
      "##🍾": 6745,
      "##👟": 6746,
      "##🔑": 6747,
      "##퀸": 6748,
      "##💋": 6749,
      "##눞": 6750,
      "##👌": 6751,
      "##밦": 6752,
      "##😏": 6753,
      "##°": 6754,
      "##갼": 6755,
      "##̑": 6756,
      "##🐮": 6757,
      "##섶": 6758,
      "##ラ": 6759,
      "##め": 6760,
      "##よ": 6761,
      "##🙅": 6762,
      "##팥": 6763,
      "##🤞": 6764,
      "##✌": 6765,
      "##🏿": 6766,
      "##独": 6767,
      "##裁": 6768,
      "##켤": 6769,
      "##슌": 6770,
      "##⭐": 6771,
      "##펫": 6772,
      "##뿅": 6773,
      "##뮐": 6774,
      "##햡": 6775,
      "##🍉": 6776,
      "##듁": 6777,
      "##짛": 6778,
      "##읊": 6779,
      "##뺴": 6780,
      "##늪": 6781,
      "##탸": 6782,
      "##打": 6783,
      "##ね": 6784,
      "##く": 6785,
      "##せ": 6786,
      "##言": 6787,
      "##🥊": 6788,
      "##죗": 6789,
      "##앎": 6790,
      "##뎔": 6791,
      "##쉿": 6792,
      "##➡": 6793,
      "##高": 6794,
      "##小": 6795,
      "##山": 6796,
      "##り": 6797,
      "##バ": 6798,
      "##촤": 6799,
      "##캅": 6800,
      "##놌": 6801,
      "##옅": 6802,
      "##텬": 6803,
      "##🍌": 6804,
      "##≫": 6805,
      "##쪈": 6806,
      "##삣": 6807,
      "##💪": 6808,
      "##後": 6809,
      "##月": 6810,
      "##朝": 6811,
      "##新": 6812,
      "##被": 6813,
      "##告": 6814,
      "##作": 6815,
      "##成": 6816,
      "##書": 6817,
      "##重": 6818,
      "##こ": 6819,
      "##ー": 6820,
      "##記": 6821,
      "##社": 6822,
      "##会": 6823,
      "##춴": 6824,
      "##븨": 6825,
      "##붤": 6826,
      "##☝": 6827,
      "##𐨛": 6828,
      "##👶": 6829,
      "##🐽": 6830,
      "##퐉": 6831,
      "##댸": 6832,
      "##뵹": 6833,
      "##☢": 6834,
      "##ᄏ": 6835,
      "##ᅠ": 6836,
      "##멉": 6837,
      "##🚴": 6838,
      "##🌋": 6839,
      "##加": 6840,
      "##왤": 6841,
      "##💘": 6842,
      "##義": 6843,
      "##삷": 6844,
      "##問": 6845,
      "##題": 6846,
      "##맗": 6847,
      "##뚯": 6848,
      "##뉩": 6849,
      "##옫": 6850,
      "##쌖": 6851,
      "##졎": 6852,
      "##뺨": 6853,
      "##뭬": 6854,
      "##힝": 6855,
      "##쫀": 6856,
      "##🇱": 6857,
      "##늧": 6858,
      "##얙": 6859,
      "##싈": 6860,
      "##틉": 6861,
      "##敵": 6862,
      "##北": 6863,
      "##由": 6864,
      "##휏": 6865,
      "##짇": 6866,
      "##훽": 6867,
      "##꺅": 6868,
      "##뚸": 6869,
      "##젱": 6870,
      "##싰": 6871,
      "##⛔": 6872,
      "##궸": 6873,
      "##숀": 6874,
      "##🐄": 6875,
      "##딫": 6876,
      "##얍": 6877,
      "##🥳": 6878,
      "##뭥": 6879,
      "##近": 6880,
      "##괌": 6881,
      "##끽": 6882,
      "##🐩": 6883,
      "##뇜": 6884,
      "##뚠": 6885,
      "##🕯": 6886,
      "##南": 6887,
      "##🐀": 6888,
      "##🐓": 6889,
      "##넒": 6890,
      "##🍖": 6891,
      "##떙": 6892,
      "##뺒": 6893,
      "##넢": 6894,
      "##把": 6895,
      "##死": 6896,
      "##🐂": 6897,
      "##🐃": 6898,
      "##軍": 6899,
      "##깆": 6900,
      "##싮": 6901,
      "##ω": 6902,
      "##뺠": 6903,
      "##폽": 6904,
      "##숵": 6905,
      "##줠": 6906,
      "##쵸": 6907,
      "##🖤": 6908,
      "##텻": 6909,
      "##갭": 6910,
      "##덱": 6911,
      "##믇": 6912,
      "##봔": 6913,
      "##뼌": 6914,
      "##看": 6915,
      "##ㅄ": 6916,
      "##챨": 6917,
      "##🌿": 6918,
      "##喜": 6919,
      "##곗": 6920,
      "##天": 6921,
      "##门": 6922,
      "##相": 6923,
      "##关": 6924,
      "##活": 6925,
      "##动": 6926,
      "##进": 6927,
      "##展": 6928,
      "##顺": 6929,
      "##利": 6930,
      "##닾": 6931,
      "##🚔": 6932,
      "##🐯": 6933,
      "##最": 6934,
      "##옐": 6935,
      "##뵌": 6936,
      "##🐏": 6937,
      "##젋": 6938,
      "##휩": 6939,
      "##펍": 6940,
      "##族": 6941,
      "##쟙": 6942,
      "##솽": 6943,
      "##🤐": 6944,
      "##于": 6945,
      "##野": 6946,
      "##땈": 6947,
      "##벹": 6948,
      "##⚰": 6949,
      "##뜁": 6950,
      "##뫼": 6951,
      "##튿": 6952,
      "##局": 6953,
      "##爲": 6954,
      "##也": 6955,
      "##꿑": 6956,
      "##🔊": 6957,
      "##∼": 6958,
      "##낔": 6959,
      "##❄": 6960,
      "##💤": 6961,
      "##💗": 6962,
      "##💝": 6963,
      "##🤧": 6964,
      "##👁": 6965,
      "##쭵": 6966,
      "##욜": 6967,
      "##方": 6968,
      "##之": 6969,
      "##毛": 6970,
      "##얂": 6971,
      "##😖": 6972,
      "##줜": 6973,
      "##真": 6974,
      "##얕": 6975,
      "##🐔": 6976,
      "##次": 6977,
      "##🐣": 6978,
      "##쯕": 6979,
      "##下": 6980,
      "##낟": 6981,
      "##큽": 6982,
      "##믕": 6983,
      "##젆": 6984,
      "##뎡": 6985,
      "##녛": 6986,
      "##삯": 6987,
      "##낡": 6988,
      "##랃": 6989,
      "##兵": 6990,
      "##📢": 6991,
      "##붖": 6992,
      "##겢": 6993,
      "##홉": 6994,
      "##늕": 6995,
      "##◇": 6996,
      "##싨": 6997,
      "##붸": 6998,
      "##훙": 6999,
      "##듄": 7000,
      "##띱": 7001,
      "##🚗": 7002,
      "##ᒺ": 7003,
      "##馬": 7004,
      "##━": 7005,
      "##♤": 7006,
      "##𐌅": 7007,
      "##志": 7008,
      "##现": 7009,
      "##命": 7010,
      "##全": 7011,
      "##띡": 7012,
      "##行": 7013,
      "##動": 7014,
      "##時": 7015,
      "##⣿": 7016,
      "##⠀": 7017,
      "##엡": 7018,
      "##뤗": 7019,
      "##떔": 7020,
      "##튄": 7021,
      "##倭": 7022,
      "##븜": 7023,
      "##놯": 7024,
      "##🍋": 7025,
      "##义": 7026,
      "##땠": 7027,
      "##뛔": 7028,
      "##줮": 7029,
      "##퐝": 7030,
      "##끋": 7031,
      "##产": 7032,
      "##杀": 7033,
      "##🔨": 7034,
      "##親": 7035,
      "##平": 7036,
      "##👾": 7037,
      "##古": 7038,
      "##뗑": 7039,
      "##눜": 7040,
      "##욪": 7041,
      "##춣": 7042,
      "##쪙": 7043,
      "##멌": 7044,
      "##쫭": 7045,
      "##쬭": 7046,
      "##첸": 7047,
      "##긑": 7048,
      "##맍": 7049,
      "##🍞": 7050,
      "##덛": 7051,
      "##쐉": 7052,
      "##🤸": 7053,
      "##쭤": 7054,
      "##껜": 7055,
      "##🦶": 7056,
      "##◐": 7057,
      "##읃": 7058,
      "##땟": 7059,
      "##즞": 7060,
      "##옼": 7061,
      "##得": 7062,
      "##チ": 7063,
      "##臭": 7064,
      "##能": 7065,
      "##诉": 7066,
      "##京": 7067,
      "##◆": 7068,
      "##깞": 7069,
      "##き": 7070,
      "##け": 7071,
      "##ば": 7072,
      "##何": 7073,
      "##ど": 7074,
      "##긐": 7075,
      "##쫙": 7076,
      "##뜾": 7077,
      "##🐅": 7078,
      "##쨰": 7079,
      "##퓸": 7080,
      "##춍": 7081,
      "##⭕": 7082,
      "##😐": 7083,
      "##夢": 7084,
      "##찎": 7085,
      "##촣": 7086,
      "##쏱": 7087,
      "##✈": 7088,
      "##水": 7089,
      "##去": 7090,
      "##士": 7091,
      "##텄": 7092,
      "##넵": 7093,
      "##△": 7094,
      "##햊": 7095,
      "##셑": 7096,
      "##툇": 7097,
      "##왝": 7098,
      "##얖": 7099,
      "##④": 7100,
      "##⬛": 7101,
      "##쐇": 7102,
      "##핣": 7103,
      "##됙": 7104,
      "##젇": 7105,
      "##섘": 7106,
      "##픙": 7107,
      "##¤": 7108,
      "##쎠": 7109,
      "##퓽": 7110,
      "##😶": 7111,
      "##괞": 7112,
      "##펐": 7113,
      "##샂": 7114,
      "##몼": 7115,
      "##金": 7116,
      "##🤮": 7117,
      "##꿎": 7118,
      "##凸": 7119,
      "##🍊": 7120,
      "##盧": 7121,
      "##컄": 7122,
      "##괙": 7123,
      "##똭": 7124,
      "##닶": 7125,
      "##🥵": 7126,
      "##🧨": 7127,
      "##뀬": 7128,
      "##럈": 7129,
      "##윰": 7130,
      "##됍": 7131,
      "##튬": 7132,
      "##足": 7133,
      "##🇸": 7134,
      "##싡": 7135,
      "##쯫": 7136,
      "##㊗": 7137,
      "##팃": 7138,
      "##읆": 7139,
      "##띰": 7140,
      "##옜": 7141,
      "##👀": 7142,
      "##洪": 7143,
      "##秋": 7144,
      "##🇲": 7145,
      "##낍": 7146,
      "##촨": 7147,
      "##섮": 7148,
      "##얶": 7149,
      "##🌟": 7150,
      "##🥕": 7151,
      "##뺃": 7152,
      "##꽐": 7153,
      "##🤺": 7154,
      "##靑": 7155,
      "##쎴": 7156,
      "##保": 7157,
      "##工": 7158,
      "##핱": 7159,
      "##뱌": 7160,
      "##再": 7161,
      "##잴": 7162,
      "##퀼": 7163,
      "##홋": 7164,
      "##夷": 7165,
      "##훓": 7166,
      "##궉": 7167,
      "##흣": 7168,
      "##섺": 7169,
      "##🗣": 7170,
      "##췃": 7171,
      "##뉠": 7172,
      "##죙": 7173,
      "##켝": 7174,
      "##틐": 7175,
      "##퐐": 7176,
      "##붂": 7177,
      "##튠": 7178,
      "##母": 7179,
      "##옸": 7180,
      "##쓥": 7181,
      "##묽": 7182,
      "##웽": 7183,
      "##🐭": 7184,
      "##퍙": 7185,
      "##웋": 7186,
      "##곯": 7187,
      "##皇": 7188,
      "##現": 7189,
      "##헹": 7190,
      "##껼": 7191,
      "##퉷": 7192,
      "##뼛": 7193,
      "##먜": 7194,
      "##밢": 7195,
      "##萬": 7196,
      "##싺": 7197,
      "##붏": 7198,
      "##읠": 7199,
      "##탯": 7200,
      "##곙": 7201,
      "##늨": 7202,
      "##댠": 7203,
      "##꿩": 7204,
      "##좟": 7205,
      "##숮": 7206,
      "##③": 7207,
      "##█": 7208,
      "##▄": 7209,
      "##벱": 7210,
      "##듥": 7211,
      "##샸": 7212,
      "##👋": 7213,
      "##ㅚ": 7214,
      "##災": 7215,
      "##낏": 7216,
      "##🈲": 7217,
      "##쑴": 7218,
      "##귿": 7219,
      "##🤕": 7220,
      "##럲": 7221,
      "##돛": 7222,
      "##☜": 7223,
      "##쎌": 7224,
      "##知": 7225,
      "##勝": 7226,
      "##つ": 7227,
      "##见": 7228,
      "##팹": 7229,
      "##쯩": 7230,
      "##意": 7231,
      "##닢": 7232,
      "##手": 7233,
      "##消": 7234,
      "##失": 7235,
      "##⬆": 7236,
      "##헥": 7237,
      "##样": 7238,
      "##太": 7239,
      "##好": 7240,
      "##렠": 7241,
      "##惡": 7242,
      "##뙨": 7243,
      "##😳": 7244,
      "##卜": 7245,
      "##핡": 7246,
      "##쾍": 7247,
      "##￦": 7248,
      "##賊": 7249,
      "##읿": 7250,
      "##톳": 7251,
      "##뻠": 7252,
      "##🐗": 7253,
      "##츤": 7254,
      "##쌘": 7255,
      "##닯": 7256,
      "##줗": 7257,
      "##롹": 7258,
      "##え": 7259,
      "##즨": 7260,
      "##긧": 7261,
      "##︎": 7262,
      "##쩟": 7263,
      "##ᄋ": 7264,
      "##ᅵ": 7265,
      "##먁": 7266,
      "##ㅤ": 7267,
      "##💔": 7268,
      "##💟": 7269,
      "##챈": 7270,
      "##뻇": 7271,
      "##쳫": 7272,
      "##윾": 7273,
      "##댇": 7274,
      "##렂": 7275,
      "##렜": 7276,
      "##뎄": 7277,
      "##希": 7278,
      "##與": 7279,
      "##做": 7280,
      "##끚": 7281,
      "##놘": 7282,
      "##죧": 7283,
      "##篇": 7284,
      "##支": 7285,
      "##持": 7286,
      "##华": 7287,
      "##故": 7288,
      "##솼": 7289,
      "##回": 7290,
      "##틑": 7291,
      "##父": 7292,
      "##묙": 7293,
      "##🐛": 7294,
      "##😔": 7295,
      "##🚬": 7296,
      "##破": 7297,
      "##🏾": 7298,
      "##끕": 7299,
      "##쇜": 7300,
      "##갃": 7301,
      "##긎": 7302,
      "##랳": 7303,
      "##變": 7304,
      "##席": 7305,
      "##렝": 7306,
      "##됑": 7307,
      "##🌹": 7308,
      "##촙": 7309,
      "##🌚": 7310,
      "##뀨": 7311,
      "##묹": 7312,
      "##흩": 7313,
      "##냌": 7314,
      "##얃": 7315,
      "##볔": 7316,
      "##女": 7317,
      "##뢍": 7318,
      "##좈": 7319,
      "##샄": 7320,
      "##힣": 7321,
      "##暗": 7322,
      "##😻": 7323,
      "##뽚": 7324,
      "##🐁": 7325,
      "##🗽": 7326,
      "##첼": 7327,
      "##甲": 7328,
      "##業": 7329,
      "##쎆": 7330,
      "##察": 7331,
      "##🏽": 7332,
      "##間": 7333,
      "##빆": 7334,
      "##헷": 7335,
      "##↗": 7336,
      "##🍆": 7337,
      "##엳": 7338,
      "##쒝": 7339,
      "##깹": 7340,
      "##씼": 7341,
      "##뭌": 7342,
      "##🙇": 7343,
      "##蟲": 7344,
      "##뫃": 7345,
      "##싦": 7346,
      "##쳑": 7347,
      "##🤤": 7348,
      "##뽝": 7349,
      "##옯": 7350,
      "##붠": 7351,
      "##멓": 7352,
      "##퉛": 7353,
      "##떱": 7354,
      "##先": 7355,
      "##멨": 7356,
      "##¥": 7357,
      "##💉": 7358,
      "##🍺": 7359,
      "##뵨": 7360,
      "##큭": 7361,
      "##닽": 7362,
      "##긂": 7363,
      "##🍑": 7364,
      "##몪": 7365,
      "##슉": 7366,
      "##찧": 7367,
      "##🌀": 7368,
      "##狂": 7369,
      "##李": 7370,
      "##퀭": 7371,
      "##숏": 7372,
      "##댯": 7373,
      "##먾": 7374,
      "##♠": 7375,
      "##햝": 7376,
      "##👞": 7377,
      "##휀": 7378,
      "##殃": 7379,
      "##뷩": 7380,
      "##춋": 7381,
      "##病": 7382,
      "##윀": 7383,
      "##뭏": 7384,
      "##뤈": 7385,
      "##🟥": 7386,
      "##̤": 7387,
      "##💊": 7388,
      "##짪": 7389,
      "##떢": 7390,
      "##퍅": 7391,
      "##엪": 7392,
      "##봍": 7393,
      "##뇐": 7394,
      "##긌": 7395,
      "##땁": 7396,
      "##ウ": 7397,
      "##住": 7398,
      "##定": 7399,
      "##핝": 7400,
      "##菜": 7401,
      "##쫗": 7402,
      "##썁": 7403,
      "##욷": 7404,
      "##帝": 7405,
      "##씐": 7406,
      "##香": 7407,
      "##퇬": 7408,
      "##빩": 7409,
      "##풰": 7410,
      "##้": 7411,
      "##産": 7412,
      "##网": 7413,
      "##亲": 7414,
      "##ا": 7415,
      "##ل": 7416,
      "##♦": 7417,
      "##吃": 7418,
      "##🔸": 7419,
      "##윕": 7420,
      "##忠": 7421,
      "##뻬": 7422,
      "##结": 7423,
      "##렆": 7424,
      "##읔": 7425,
      "##꺵": 7426,
      "##쬠": 7427,
      "##볐": 7428,
      "##앍": 7429,
      "##뭤": 7430,
      "##쎗": 7431,
      "##챕": 7432,
      "##😵": 7433,
      "##門": 7434,
      "##왛": 7435,
      "##◑": 7436,
      "##뿟": 7437,
      "##私": 7438,
      "##立": 7439,
      "##슭": 7440,
      "##쫩": 7441,
      "##삵": 7442,
      "##놰": 7443,
      "##🏃": 7444,
      "##젰": 7445,
      "##東": 7446,
      "##海": 7447,
      "##😣": 7448,
      "##갲": 7449,
      "##꽅": 7450,
      "##챰": 7451,
      "##궛": 7452,
      "##눟": 7453,
      "##옃": 7454,
      "##얒": 7455,
      "##젏": 7456,
      "##옰": 7457,
      "##돵": 7458,
      "##뺍": 7459,
      "##곈": 7460,
      "##껨": 7461,
      "##果": 7462,
      "##쯪": 7463,
      "##탰": 7464,
      "##휙": 7465,
      "##먆": 7466,
      "##뱩": 7467,
      "##君": 7468,
      "##💃": 7469,
      "##풉": 7470,
      "##읫": 7471,
      "##츳": 7472,
      "##♨": 7473,
      "##情": 7474,
      "##ㅞ": 7475,
      "##禍": 7476,
      "##西": 7477,
      "##藏": 7478,
      "##깂": 7479,
      "##쨓": 7480,
      "##홤": 7481,
      "##領": 7482,
      "##❎": 7483,
      "##找": 7484,
      "##쟀": 7485,
      "##븍": 7486,
      "##쳉": 7487,
      "##↘": 7488,
      "##뺵": 7489,
      "##欢": 7490,
      "##迎": 7491,
      "##뀠": 7492,
      "##醜": 7493,
      "##🇹": 7494,
      "##🇭": 7495,
      "##🌅": 7496,
      "##폿": 7497,
      "##넺": 7498,
      "##뱜": 7499,
      "##쐨": 7500,
      "##🔹": 7501,
      "##💰": 7502,
      "##信": 7503,
      "##씝": 7504,
      "##〓": 7505,
      "##뼤": 7506,
      "##뫈": 7507,
      "##왘": 7508,
      "##쟐": 7509,
      "##웝": 7510,
      "##슛": 7511,
      "##💨": 7512,
      "##牛": 7513,
      "##왱": 7514,
      "##殺": 7515,
      "##田": 7516,
      "##维": 7517,
      "##吾": 7518,
      "##◎": 7519,
      "##쌂": 7520,
      "##솤": 7521,
      "##튤": 7522,
      "##딋": 7523,
      "##🦉": 7524,
      "##헴": 7525,
      "##鬼": 7526,
      "##很": 7527,
      "##善": 7528,
      "##对": 7529,
      "##点": 7530,
      "##튕": 7531,
      "##곺": 7532,
      "##붱": 7533,
      "##쉘": 7534,
      "##잛": 7535,
      "##🎯": 7536,
      "##흴": 7537,
      "##븡": 7538,
      "##횬": 7539,
      "##🔮": 7540,
      "##뭅": 7541,
      "##깼": 7542,
      "##🔺": 7543,
      "##๑": 7544,
      "##🤓": 7545,
      "##굣": 7546,
      "##论": 7547,
      "##🐧": 7548,
      "##굘": 7549,
      "##漢": 7550,
      "##텟": 7551,
      "##욹": 7552,
      "##샇": 7553,
      "##죌": 7554,
      "##졘": 7555,
      "##셓": 7556,
      "##죴": 7557,
      "##뢈": 7558,
      "##爱": 7559,
      "##🎤": 7560,
      "##쒹": 7561,
      "##빢": 7562,
      "##🍓": 7563,
      "##꽊": 7564,
      "##퐌": 7565,
      "##修": 7566,
      "##줱": 7567,
      "##뜹": 7568,
      "##八": 7569,
      "##🏅": 7570,
      "##🥇": 7571,
      "##史": 7572,
      "##忘": 7573,
      "##젬": 7574,
      "##앂": 7575,
      "##里": 7576,
      "##表": 7577,
      "##半": 7578,
      "##뻡": 7579,
      "##얜": 7580,
      "##⫬": 7581,
      "##起": 7582,
      "##퉜": 7583,
      "##逼": 7584,
      "##目": 7585,
      "##↙": 7586,
      "##겈": 7587,
      "##◀": 7588,
      "##뱄": 7589,
      "##イ": 7590,
      "##쑹": 7591,
      "##싞": 7592,
      "##죨": 7593,
      "##뤽": 7594,
      "##좔": 7595,
      "##愛": 7596,
      "##윔": 7597,
      "##궝": 7598,
      "##굷": 7599,
      "##非": 7600,
      "##˘": 7601,
      "##▾": 7602,
      "##쎀": 7603,
      "##🎃": 7604,
      "##他": 7605,
      "##똫": 7606,
      "##옙": 7607,
      "##눍": 7608,
      "##퇫": 7609,
      "##댖": 7610,
      "##🐜": 7611,
      "##🐝": 7612,
      "##맊": 7613,
      "##府": 7614,
      "##캭": 7615,
      "##쇳": 7616,
      "##쩧": 7617,
      "##낵": 7618,
      "##맆": 7619,
      "##즬": 7620,
      "##쟨": 7621,
      "##줔": 7622,
      "##ｦ": 7623,
      "##귐": 7624,
      "##油": 7625,
      "##꾾": 7626,
      "##숄": 7627,
      "##죰": 7628,
      "##🌜": 7629,
      "##☄": 7630,
      "##멏": 7631,
      "##💻": 7632,
      "##评": 7633,
      "##펩": 7634,
      "##时": 7635,
      "##쨘": 7636,
      "##土": 7637,
      "##权": 7638,
      "##记": 7639,
      "##휭": 7640,
      "##🐟": 7641,
      "##😴": 7642,
      "##훝": 7643,
      "##삮": 7644,
      "##왐": 7645,
      "##⚫": 7646,
      "##뒸": 7647,
      "##😧": 7648,
      "##듕": 7649,
      "##꼳": 7650,
      "##쒞": 7651,
      "##清": 7652,
      "##長": 7653,
      "##켑": 7654,
      "##쎘": 7655,
      "##€": 7656,
      "##所": 7657,
      "##̌": 7658,
      "##쉈": 7659,
      "##잀": 7660,
      "##켬": 7661,
      "##德": 7662,
      "##즥": 7663,
      "##´": 7664,
      "##👮": 7665,
      "##密": 7666,
      "##男": 7667,
      "##像": 7668,
      "##骂": 7669,
      "##尹": 7670,
      "##东": 7671,
      "##波": 7672,
      "##짲": 7673,
      "##章": 7674,
      "##想": 7675,
      "##뻴": 7676,
      "##🩸": 7677,
      "##百": 7678,
      "##뚕": 7679,
      "##촹": 7680,
      "##띈": 7681,
      "##崩": 7682,
      "##🤡": 7683,
      "##ヲ": 7684,
      "##𝄃": 7685,
      "##𝄂": 7686,
      "##쨎": 7687,
      "##嘴": 7688,
      "##짋": 7689,
      "##싁": 7690,
      "##🐺": 7691,
      "##🐸": 7692,
      "##🎄": 7693,
      "##킄": 7694,
      "##功": 7695,
      "##쁑": 7696,
      "##Δ": 7697,
      "##쯀": 7698,
      "##📌": 7699,
      "##奴": 7700,
      "##戰": 7701,
      "##뱓": 7702,
      "##앝": 7703,
      "##🤍": 7704,
      "##얨": 7705,
      "##臣": 7706,
      "##州": 7707,
      "##😌": 7708,
      "##귾": 7709,
      "##봊": 7710,
      "##🦠": 7711,
      "##候": 7712,
      "##꿏": 7713,
      "##묫": 7714,
      "##읖": 7715,
      "##石": 7716,
      "##눗": 7717,
      "##🌰": 7718,
      "##걘": 7719,
      "##🌊": 7720,
      "##쫐": 7721,
      "##雜": 7722,
      "##台": 7723,
      "##演": 7724,
      "##쌧": 7725,
      "##컽": 7726,
      "##島": 7727,
      "##빍": 7728,
      "##🇼": 7729,
      "##米": 7730,
      "##🎀": 7731,
      "##ㄳ": 7732,
      "##£": 7733,
      "##끍": 7734,
      "##욀": 7735,
      "##💎": 7736,
      "##别": 7737,
      "##🎅": 7738,
      "##옭": 7739,
      "##🗑": 7740,
      "##죹": 7741,
      "##셸": 7742,
      "##꽹": 7743,
      "##⇒": 7744,
      "##從": 7745,
      "##秘": 7746,
      "##协": 7747,
      "##淸": 7748,
      "##쪾": 7749,
      "##②": 7750,
      "##性": 7751,
      "##촥": 7752,
      "##퓌": 7753,
      "##港": 7754,
      "##湾": 7755,
      "##态": 7756,
      "##🐱": 7757,
      "##儿": 7758,
      "##谢": 7759,
      "##🌛": 7760,
      "##▇": 7761,
      "##恨": 7762,
      "##给": 7763,
      "##꾿": 7764,
      "##슆": 7765,
      "##🛑": 7766,
      "##蛋": 7767,
      "##죡": 7768,
      "##벍": 7769,
      "##뼘": 7770,
      "##썡": 7771,
      "##뙇": 7772,
      "##뻿": 7773,
      "##쟛": 7774,
      "##🧠": 7775,
      "##✚": 7776,
      "##̳": 7777,
      "##́": 7778,
      "##讲": 7779,
      "##쏩": 7780,
      "##볗": 7781,
      "##曰": 7782,
      "##웈": 7783,
      "##퉥": 7784,
      "##披": 7785,
      "##露": 7786,
      "##领": 7787,
      "##祖": 7788,
      "##左": 7789,
      "##゜": 7790,
      "##💡": 7791,
      "##섥": 7792,
      "##촵": 7793,
      "##꺌": 7794,
      "##曺": 7795,
      "##뷁": 7796,
      "##걈": 7797,
      "##쵀": 7798,
      "##튐": 7799,
      "##퉸": 7800,
      "##죻": 7801,
      "##⊙": 7802,
      "##万": 7803,
      "##屠": 7804,
      "##🦇": 7805,
      "##千": 7806,
      "##좢": 7807,
      "##写": 7808,
      "##曉": 7809,
      "##낲": 7810,
      "##ﾟ": 7811,
      "##付": 7812,
      "##弔": 7813,
      "##쏵": 7814,
      "##问": 7815,
      "##촴": 7816,
      "##①": 7817,
      "##✅": 7818,
      "##휑": 7819,
      "##헠": 7820,
      "##뻰": 7821,
      "##쭛": 7822,
      "##🌎": 7823,
      "##🥄": 7824,
      "##쏼": 7825,
      "##잚": 7826,
      "##败": 7827,
      "##몯": 7828,
      "##◈": 7829,
      "##젅": 7830,
      "##🐨": 7831,
      "##學": 7832,
      "##錄": 7833,
      "##對": 7834,
      "##궃": 7835,
      "##比": 7836,
      "##毒": 7837,
      "##갵": 7838,
      "##☣": 7839,
      "##🌩": 7840,
      "##▽": 7841,
      "##应": 7842,
      "##该": 7843,
      "##🚪": 7844,
      "##꿱": 7845,
      "##毁": 7846,
      "##🆘": 7847,
      "##ࠅ": 7848,
      "##轮": 7849,
      "##泡": 7850,
      "##蚊": 7851,
      "##🔶": 7852,
      "##و": 7853,
      "##🥩": 7854,
      "##🍳": 7855,
      "##앏": 7856,
      "##引": 7857,
      "##ㄺ": 7858,
      "##ꉂ": 7859,
      "##줸": 7860,
      "##훑": 7861,
      "##갮": 7862,
      "##诸": 7863,
      "##죷": 7864,
      "##🐆": 7865,
      "##🏚": 7866,
      "##內": 7867,
      "##赞": 7868,
      "##😕": 7869,
      "##칡": 7870,
      "##ᗜ": 7871,
      "##ᵔ": 7872,
      "##🪳": 7873,
      "##⛄": 7874,
      "##쾈": 7875,
      "##🔖": 7876,
      "##뺕": 7877,
      "##賣": 7878,
      "##쯍": 7879,
      "##뭠": 7880,
      "##腐": 7881,
      "##빧": 7882,
      "##强": 7883,
      "##✿": 7884,
      "##🤥": 7885,
      "##ì": 7886,
      "##集": 7887,
      "##⏪": 7888,
      "##넖": 7889,
      "##益": 7890,
      "##뮙": 7891,
      "##젙": 7892,
      "##寇": 7893,
      "##넑": 7894,
      "##将": 7895,
      "##ิ": 7896,
      "##ง": 7897,
      "##及": 7898,
      "##꾐": 7899,
      "##祝": 7900,
      "##뭨": 7901,
      "##◡": 7902,
      "##机": 7903,
      "##떫": 7904,
      "##☎": 7905,
      "##옪": 7906,
      "##▅": 7907,
      "##导": 7908,
      "##汚": 7909,
      "##퍀": 7910,
      "##⑤": 7911,
      "##耐": 7912,
      "##▆": 7913,
      "##̀": 7914,
      "##웸": 7915,
      "##❅": 7916,
      "##輪": 7917,
      "##ⓘ": 7918,
      "##┈": 7919,
      "##⚀": 7920,
      "##็": 7921,
      "##溃": 7922,
      "##￣": 7923,
      "##垮": 7924,
      "##⑥": 7925,
      "##ᕙ": 7926,
      "##ﾉ": 7927,
      "##标": 7928,
      "##▓": 7929,
      "##ึ": 7930,
      "##劉": 7931,
      "##ㅋㅋ": 7932,
      "##으로": 7933,
      "##하는": 7934,
      "##니다": 7935,
      "##들이": 7936,
      "##하고": 7937,
      "##에서": 7938,
      "##는데": 7939,
      "국민": 7940,
      "##다고": 7941,
      "아니": 7942,
      "##이다": 7943,
      "사람": 7944,
      "##들은": 7945,
      "##라고": 7946,
      "##는거": 7947,
      "나라": 7948,
      "##으면": 7949,
      "문재": 7950,
      "##하면": 7951,
      "##해서": 7952,
      "이런": 7953,
      "생각": 7954,
      "우리": 7955,
      "##통령": 7956,
      "##다는": 7957,
      "진짜": 7958,
      "##이라": 7959,
      "##까지": 7960,
      "하는": 7961,
      "##하지": 7962,
      "##세요": 7963,
      "##하게": 7964,
      "##이나": 7965,
      "##니까": 7966,
      "민주": 7967,
      "##렇게": 7968,
      "##리고": 7969,
      "문재인": 7970,
      "지금": 7971,
      "##한다": 7972,
      "대통령": 7973,
      "ㅋㅋ": 7974,
      "##대로": 7975,
      "##하다": 7976,
      "##나라": 7977,
      "그냥": 7978,
      "중국": 7979,
      "##에게": 7980,
      "##인데": 7981,
      "##지만": 7982,
      "##해라": 7983,
      "정치": 7984,
      "##네요": 7985,
      "일본": 7986,
      "##해야": 7987,
      "대한": 7988,
      "인간": 7989,
      "##00": 7990,
      "한국": 7991,
      "민주당": 7992,
      "##구나": 7993,
      "##한테": 7994,
      "정부": 7995,
      "있는": 7996,
      "##면서": 7997,
      "정권": 7998,
      "이제": 7999,
      "##이고": 8000,
      "##레기": 8001,
      "##부터": 8002,
      "##민국": 8003,
      "그래": 8004,
      "아닌": 8005,
      "문제": 8006,
      "하고": 8007,
      "##같은": 8008,
      "##습니다": 8009,
      "##보다": 8010,
      "##는게": 8011,
      "정신": 8012,
      "##합니다": 8013,
      "모르": 8014,
      "지지": 8015,
      "대한민국": 8016,
      "##라도": 8017,
      "##사람": 8018,
      "##야지": 8019,
      "##들어": 8020,
      "무슨": 8021,
      "그런": 8022,
      "정말": 8023,
      "너무": 8024,
      "##려고": 8025,
      "그러": 8026,
      "같은": 8027,
      "##이지": 8028,
      "조국": 8029,
      "북한": 8030,
      "##로나": 8031,
      "##인가": 8032,
      "##겠다": 8033,
      "##입니다": 8034,
      "##으니": 8035,
      "기사": 8036,
      "이재": 8037,
      "##적으로": 8038,
      "세금": 8039,
      "##이냐": 8040,
      "윤석": 8041,
      "##소리": 8042,
      "백신": 8043,
      "저런": 8044,
      "##주의": 8045,
      "하나": 8046,
      "##이가": 8047,
      "##어서": 8048,
      "코로나": 8049,
      "##들아": 8050,
      "##자가": 8051,
      "아무": 8052,
      "##리는": 8053,
      "자기": 8054,
      "##처럼": 8055,
      "##것도": 8056,
      "##이네": 8057,
      "##자들": 8058,
      "없는": 8059,
      "검찰": 8060,
      "하지": 8061,
      "미국": 8062,
      "이재명": 8063,
      "##하네": 8064,
      "##적인": 8065,
      "##인이": 8066,
      "##지고": 8067,
      "이게": 8068,
      "얼마": 8069,
      "댓글": 8070,
      "안되": 8071,
      "##겠지": 8072,
      "##는지": 8073,
      "국민들": 8074,
      "윤석열": 8075,
      "##라는": 8076,
      "##아서": 8077,
      "어떻": 8078,
      "##ㅎㅎ": 8079,
      "쓰레기": 8080,
      "들어": 8081,
      "그리고": 8082,
      "한다": 8083,
      "없다": 8084,
      "누가": 8085,
      "있다": 8086,
      "제발": 8087,
      "##말고": 8088,
      "어디": 8089,
      "##OO": 8090,
      "아직": 8091,
      "##이라고": 8092,
      "나오": 8093,
      "그렇게": 8094,
      "잘못": 8095,
      "국가": 8096,
      "##잖아": 8097,
      "##문에": 8098,
      "어떻게": 8099,
      "다른": 8100,
      "문재앙": 8101,
      "##지도": 8102,
      "우리나라": 8103,
      "당신": 8104,
      "아니라": 8105,
      "##하냐": 8106,
      "##들의": 8107,
      "많이": 8108,
      "##이야": 8109,
      "##다가": 8110,
      "그만": 8111,
      "##들도": 8112,
      "##어야": 8113,
      "경제": 8114,
      "##이는": 8115,
      "##해도": 8116,
      "대깨": 8117,
      "좌파": 8118,
      "그럼": 8119,
      "##하나": 8120,
      "##없는": 8121,
      "##놓고": 8122,
      "##인지": 8123,
      "이상": 8124,
      "##가리": 8125,
      "##들을": 8126,
      "##가는": 8127,
      "이렇게": 8128,
      "##한거": 8129,
      "##정부": 8130,
      "##더니": 8131,
      "##정권": 8132,
      "언론": 8133,
      "##하는거": 8134,
      "사람이": 8135,
      "##어요": 8136,
      "얼마나": 8137,
      "##의원": 8138,
      "##지는": 8139,
      "##시다": 8140,
      "20": 8141,
      "##에는": 8142,
      "사회": 8143,
      "##는다": 8144,
      "서울": 8145,
      "##있는": 8146,
      "##을까": 8147,
      "소리": 8148,
      "OOO": 8149,
      "##자는": 8150,
      "ㅉㅉ": 8151,
      "##거리": 8152,
      "##기는": 8153,
      "수사": 8154,
      "세상": 8155,
      "이번": 8156,
      "##어도": 8157,
      "##된다": 8158,
      "거짓": 8159,
      "피해": 8160,
      "아니고": 8161,
      "제대로": 8162,
      "10": 8163,
      "##시키": 8164,
      "보고": 8165,
      "조선": 8166,
      "살아": 8167,
      "수준": 8168,
      "##보고": 8169,
      "해야": 8170,
      "##었다": 8171,
      "필요": 8172,
      "공산": 8173,
      "##겠네": 8174,
      "선거": 8175,
      "##국민": 8176,
      "국회": 8177,
      "##이면": 8178,
      "##하는데": 8179,
      "만들": 8180,
      "자유": 8181,
      "계속": 8182,
      "이미": 8183,
      "##근혜": 8184,
      "빨갱": 8185,
      "다시": 8186,
      "##는건": 8187,
      "누구": 8188,
      "##에도": 8189,
      "##봐라": 8190,
      "만들어": 8191,
      "아닌가": 8192,
      "##정도": 8193,
      "##나요": 8194,
      "아이": 8195,
      "모든": 8196,
      "범죄": 8197,
      "국민의": 8198,
      "말고": 8199,
      "모두": 8200,
      "내가": 8201,
      "하면": 8202,
      "니가": 8203,
      "사실": 8204,
      "근데": 8205,
      "##주고": 8206,
      "##구만": 8207,
      "사기": 8208,
      "이해": 8209,
      "##가서": 8210,
      "책임": 8211,
      "##리가": 8212,
      "좋은": 8213,
      "##했다": 8214,
      "보수": 8215,
      "경찰": 8216,
      "##아야": 8217,
      "돌아": 8218,
      "##가지": 8219,
      "##마라": 8220,
      "이건": 8221,
      "이유": 8222,
      "##돼지": 8223,
      "해라": 8224,
      "여자": 8225,
      "미친": 8226,
      "나라가": 8227,
      "아직도": 8228,
      "##하기": 8229,
      "대깨문": 8230,
      "##없이": 8231,
      "여기": 8232,
      "조사": 8233,
      "보면": 8234,
      "말이": 8235,
      "##스크": 8236,
      "역시": 8237,
      "##만원": 8238,
      "##하라": 8239,
      "좋아": 8240,
      "한번": 8241,
      "언제": 8242,
      "니들": 8243,
      "##이라도": 8244,
      "##ㅡㅡ": 8245,
      "##하니": 8246,
      "##시켜": 8247,
      "사람들": 8248,
      "##러운": 8249,
      "정의": 8250,
      "많은": 8251,
      "한심": 8252,
      "그래서": 8253,
      "박근혜": 8254,
      "무능": 8255,
      "아주": 8256,
      "##텐데": 8257,
      "당연": 8258,
      "후보": 8259,
      "##같이": 8260,
      "알고": 8261,
      "##하시": 8262,
      "##다니": 8263,
      "그게": 8264,
      "부모": 8265,
      "##던데": 8266,
      "##동산": 8267,
      "##없다": 8268,
      "##아니": 8269,
      "##어나": 8270,
      "##수가": 8271,
      "빨갱이": 8272,
      "절대": 8273,
      "##어라": 8274,
      "##하면서": 8275,
      "100": 8276,
      "##거다": 8277,
      "대선": 8278,
      "##기를": 8279,
      "가족": 8280,
      "##것이": 8281,
      "##하자": 8282,
      "선동": 8283,
      "바로": 8284,
      "##이랑": 8285,
      "##기에": 8286,
      "그렇": 8287,
      "자식": 8288,
      "##먹고": 8289,
      "이러": 8290,
      "##보면": 8291,
      "결국": 8292,
      "부동산": 8293,
      "##사가": 8294,
      "##성이": 8295,
      "##더라": 8296,
      "##한다고": 8297,
      "떨어": 8298,
      "##인들": 8299,
      "##당이": 8300,
      "사과": 8301,
      "##거지": 8302,
      "##아라": 8303,
      "##하는게": 8304,
      "정책": 8305,
      "##주는": 8306,
      "더불": 8307,
      "뭐가": 8308,
      "빨리": 8309,
      "##체가": 8310,
      "조작": 8311,
      "친일": 8312,
      "##이니": 8313,
      "없어": 8314,
      "##와서": 8315,
      "##무원": 8316,
      "##지않": 8317,
      "아니다": 8318,
      "국민이": 8319,
      "자신": 8320,
      "개돼지": 8321,
      "마스크": 8322,
      "##는거지": 8323,
      "국민들이": 8324,
      "##정은": 8325,
      "##주세요": 8326,
      "어떤": 8327,
      "##치고": 8328,
      "##와대": 8329,
      "##것들": 8330,
      "위해": 8331,
      "국민을": 8332,
      "인정": 8333,
      "##되는": 8334,
      "##거나": 8335,
      "##동안": 8336,
      "##겠냐": 8337,
      "니들이": 8338,
      "때문에": 8339,
      "정도": 8340,
      "요즘": 8341,
      "거짓말": 8342,
      "완전": 8343,
      "기자": 8344,
      "본인": 8345,
      "##중에": 8346,
      "도대": 8347,
      "같이": 8348,
      "있는데": 8349,
      "없고": 8350,
      "##되면": 8351,
      "##스럽": 8352,
      "##장이": 8353,
      "합니다": 8354,
      "재앙": 8355,
      "##지가": 8356,
      "##이상": 8357,
      "검사": 8358,
      "국회의원": 8359,
      "마음": 8360,
      "##기가": 8361,
      "##시고": 8362,
      "청와대": 8363,
      "##전에": 8364,
      "세계": 8365,
      "있었": 8366,
      "##려라": 8367,
      "##지말고": 8368,
      "이거": 8369,
      "도대체": 8370,
      "자한": 8371,
      "##고있": 8372,
      "반대": 8373,
      "안철": 8374,
      "##치는": 8375,
      "다음": 8376,
      "권력": 8377,
      "받아": 8378,
      "탄핵": 8379,
      "사람들이": 8380,
      "##기도": 8381,
      "##다면": 8382,
      "공무원": 8383,
      "시작": 8384,
      "처벌": 8385,
      "상황": 8386,
      "##사는": 8387,
      "##조건": 8388,
      "아님": 8389,
      "ㅎㅎ": 8390,
      "기업": 8391,
      "##이란": 8392,
      "##이라는": 8393,
      "나라를": 8394,
      "##건데": 8395,
      "전부": 8396,
      "그래도": 8397,
      "지들": 8398,
      "아니면": 8399,
      "##로남": 8400,
      "먼저": 8401,
      "정상": 8402,
      "##준표": 8403,
      "##로남불": 8404,
      "화이": 8405,
      "시간": 8406,
      "대단": 8407,
      "전라도": 8408,
      "##시간": 8409,
      "너희": 8410,
      "이용": 8411,
      "어쩌": 8412,
      "지원": 8413,
      "##명이": 8414,
      "보내": 8415,
      "보여": 8416,
      "지지율": 8417,
      "여론": 8418,
      "응원": 8419,
      "##하여": 8420,
      "집값": 8421,
      "이젠": 8422,
      "남자": 8423,
      "무조건": 8424,
      "사건": 8425,
      "##때문에": 8426,
      "홍준표": 8427,
      "30": 8428,
      "구속": 8429,
      "더불어": 8430,
      "##건가": 8431,
      "##하세요": 8432,
      "##새끼": 8433,
      "##대통령": 8434,
      "얘기": 8435,
      "##놈들": 8436,
      "어느": 8437,
      "살인": 8438,
      "공정": 8439,
      "가짜": 8440,
      "사고": 8441,
      "##기업": 8442,
      "##자리": 8443,
      "##라이": 8444,
      "되는": 8445,
      "##스로": 8446,
      "##천지": 8447,
      "어찌": 8448,
      "##당은": 8449,
      "##후보": 8450,
      "그걸": 8451,
      "##하며": 8452,
      "##것이다": 8453,
      "얼굴": 8454,
      "##해야지": 8455,
      "가능": 8456,
      "현실": 8457,
      "좌빨": 8458,
      "50": 8459,
      "여성": 8460,
      "앞으로": 8461,
      "##들에게": 8462,
      "못한": 8463,
      "걱정": 8464,
      "시키": 8465,
      "##준석": 8466,
      "그리": 8467,
      "뉴스": 8468,
      "##려는": 8469,
      "방역": 8470,
      "##가고": 8471,
      "머리": 8472,
      "하는데": 8473,
      "있을": 8474,
      "방송": 8475,
      "엄청": 8476,
      "##리면": 8477,
      "##리지": 8478,
      "##대표": 8479,
      "##했는데": 8480,
      "나도": 8481,
      "모르는": 8482,
      "아무리": 8483,
      "내로남불": 8484,
      "##수있": 8485,
      "하루": 8486,
      "해도": 8487,
      "안철수": 8488,
      "##려면": 8489,
      "힘들": 8490,
      "##한데": 8491,
      "것이": 8492,
      "이준석": 8493,
      "##보니": 8494,
      "적폐": 8495,
      "가장": 8496,
      "##밖에": 8497,
      "ㅠㅠ": 8498,
      "가지고": 8499,
      "행동": 8500,
      "중요": 8501,
      "다니": 8502,
      "##파트": 8503,
      "나쁜": 8504,
      "서민": 8505,
      "##건지": 8506,
      "##시민": 8507,
      "전세": 8508,
      "최고": 8509,
      "집단": 8510,
      "##하겠": 8511,
      "##인간": 8512,
      "독재": 8513,
      "기레기": 8514,
      "문죄": 8515,
      "##려서": 8516,
      "난리": 8517,
      "##았다": 8518,
      "##대가": 8519,
      "것이다": 8520,
      "##도록": 8521,
      "하는거": 8522,
      "개인": 8523,
      "gt": 8524,
      "저렇게": 8525,
      "##었는데": 8526,
      "대통령이": 8527,
      "##일보": 8528,
      "일반": 8529,
      "아니냐": 8530,
      "사형": 8531,
      "##조사": 8532,
      "##력이": 8533,
      "외국": 8534,
      "자한당": 8535,
      "##시장": 8536,
      "장관": 8537,
      "먹고": 8538,
      "증거": 8539,
      "##대는": 8540,
      "해서": 8541,
      "##생각": 8542,
      "만든": 8543,
      "의사": 8544,
      "##끼리": 8545,
      "##기고": 8546,
      "##라지": 8547,
      "세월": 8548,
      "무식": 8549,
      "##자를": 8550,
      "18": 8551,
      "##아요": 8552,
      "##되고": 8553,
      "사퇴": 8554,
      "된다": 8555,
      "국힘": 8556,
      "##수도": 8557,
      "접종": 8558,
      "##것들이": 8559,
      "없이": 8560,
      "시민": 8561,
      "새끼": 8562,
      "부정": 8563,
      "나온": 8564,
      "삼성": 8565,
      "##프로": 8566,
      "##자들이": 8567,
      "같다": 8568,
      "##선거": 8569,
      "관심": 8570,
      "오늘": 8571,
      "같은데": 8572,
      "##들만": 8573,
      "대구": 8574,
      "내려": 8575,
      "따라": 8576,
      "##나오": 8577,
      "맞는": 8578,
      "확진": 8579,
      "##민주": 8580,
      "##간다": 8581,
      "나는": 8582,
      "이래": 8583,
      "##받고": 8584,
      "##머니": 8585,
      "##거야": 8586,
      "##드시": 8587,
      "이야": 8588,
      "##르고": 8589,
      "김정은": 8590,
      "공개": 8591,
      "##난다": 8592,
      "##하던": 8593,
      "니네": 8594,
      "사람은": 8595,
      "지역": 8596,
      "##한게": 8597,
      "미래": 8598,
      "신천지": 8599,
      "##마다": 8600,
      "##리를": 8601,
      "바보": 8602,
      "##원이": 8603,
      "있나": 8604,
      "역사": 8605,
      "##아먹": 8606,
      "##기사": 8607,
      "안보": 8608,
      "##국가": 8609,
      "불법": 8610,
      "##나서": 8611,
      "##해주": 8612,
      "##드는": 8613,
      "##에서는": 8614,
      "토착": 8615,
      "##을때": 8616,
      "진정": 8617,
      "페미": 8618,
      "더러운": 8619,
      "##는거야": 8620,
      "인생": 8621,
      "있네": 8622,
      "안되는": 8623,
      "감사": 8624,
      "대표": 8625,
      "##미애": 8626,
      "##라면": 8627,
      "##인은": 8628,
      "부끄": 8629,
      "확실": 8630,
      "##심히": 8631,
      "##내고": 8632,
      "##아치": 8633,
      "시장": 8634,
      "정부가": 8635,
      "##영업": 8636,
      "대가리": 8637,
      "거지": 8638,
      "##운동": 8639,
      "있으면": 8640,
      "결과": 8641,
      "제일": 8642,
      "진실": 8643,
      "사는": 8644,
      "그런데": 8645,
      "없애": 8646,
      "사이": 8647,
      "가만": 8648,
      "애들": 8649,
      "##차피": 8650,
      "##이들": 8651,
      "세월호": 8652,
      "##장관": 8653,
      "해결": 8654,
      "가서": 8655,
      "넘어": 8656,
      "조용": 8657,
      "올라": 8658,
      "##대가리": 8659,
      "##봐야": 8660,
      "못하는": 8661,
      "아베": 8662,
      "##일이": 8663,
      "##란다": 8664,
      "뻔뻔": 8665,
      "##뉴스": 8666,
      "##지마라": 8667,
      "지켜": 8668,
      "개소리": 8669,
      "어차피": 8670,
      "정신병": 8671,
      "안타": 8672,
      "아파트": 8673,
      "말을": 8674,
      "##지면": 8675,
      "##교체": 8676,
      "불쌍": 8677,
      "스스로": 8678,
      "친구": 8679,
      "있고": 8680,
      "정신차": 8681,
      "인간이": 8682,
      "않는": 8683,
      "시켜": 8684,
      "솔직": 8685,
      "기본": 8686,
      "##스트": 8687,
      "##수처": 8688,
      "밝혀": 8689,
      "이나라": 8690,
      "##것은": 8691,
      "##대한": 8692,
      "젊은": 8693,
      "위한": 8694,
      "양심": 8695,
      "##들고": 8696,
      "투표": 8697,
      "멍청": 8698,
      "반성": 8699,
      "문제가": 8700,
      "지나": 8701,
      "투기": 8702,
      "평생": 8703,
      "추미애": 8704,
      "열심히": 8705,
      "##할때": 8706,
      "인권": 8707,
      "상식": 8708,
      "ㅡㅡ": 8709,
      "문재인이": 8710,
      "사망": 8711,
      "##진다": 8712,
      "40": 8713,
      "##지지": 8714,
      "##어야지": 8715,
      "##보네": 8716,
      "당장": 8717,
      "반드시": 8718,
      "자영업": 8719,
      "다들": 8720,
      "국짐": 8721,
      "##라리": 8722,
      "우리가": 8723,
      "##것을": 8724,
      "##했다고": 8725,
      "##가요": 8726,
      "특검": 8727,
      "처음": 8728,
      "여러": 8729,
      "##부분": 8730,
      "어디서": 8731,
      "이름": 8732,
      "않은": 8733,
      "국민들은": 8734,
      "교육": 8735,
      "안된다": 8736,
      "나이": 8737,
      "##있다": 8738,
      "않고": 8739,
      "월급": 8740,
      "##이러": 8741,
      "무서": 8742,
      "그때": 8743,
      "것도": 8744,
      "능력": 8745,
      "##정신": 8746,
      "선택": 8747,
      "군대": 8748,
      "공부": 8749,
      "##왜구": 8750,
      "사진": 8751,
      "공수처": 8752,
      "##개혁": 8753,
      "##해보": 8754,
      "자살": 8755,
      "밖에": 8756,
      "교회": 8757,
      "##조작": 8758,
      "##마디": 8759,
      "사기꾼": 8760,
      "##아닌": 8761,
      "##거라": 8762,
      "##으면서": 8763,
      "해야지": 8764,
      "해외": 8765,
      "장난": 8766,
      "결혼": 8767,
      "보다": 8768,
      "팩트": 8769,
      "##야한다": 8770,
      "말도": 8771,
      "잡아": 8772,
      "##만큼": 8773,
      "##겠지만": 8774,
      "##린다": 8775,
      "공산당": 8776,
      "간첩": 8777,
      "궁금": 8778,
      "하네": 8779,
      "화이팅": 8780,
      "차라리": 8781,
      "##워서": 8782,
      "##적이": 8783,
      "조금": 8784,
      "아들": 8785,
      "전쟁": 8786,
      "##던가": 8787,
      "않았": 8788,
      "거기": 8789,
      "##명박": 8790,
      "##상이": 8791,
      "운동": 8792,
      "무시": 8793,
      "감옥": 8794,
      "하면서": 8795,
      "##상도": 8796,
      "대체": 8797,
      "모습": 8798,
      "##라서": 8799,
      "학교": 8800,
      "##할수": 8801,
      "어린": 8802,
      "##는거다": 8803,
      "##가면": 8804,
      "변호": 8805,
      "촛불": 8806,
      "진보": 8807,
      "##문제": 8808,
      "정치인": 8809,
      "받고": 8810,
      "것은": 8811,
      "##랍니다": 8812,
      "##겁니다": 8813,
      "안하고": 8814,
      "##나는": 8815,
      "일베": 8816,
      "##노총": 8817,
      "하시": 8818,
      "그러니": 8819,
      "보니": 8820,
      "당연히": 8821,
      "인간들": 8822,
      "##은거": 8823,
      "##지를": 8824,
      "##져라": 8825,
      "아는": 8826,
      "뭐냐": 8827,
      "치료": 8828,
      "마라": 8829,
      "혼자": 8830,
      "총선": 8831,
      "못하고": 8832,
      "##지요": 8833,
      "지랄": 8834,
      "알아": 8835,
      "기억": 8836,
      "있으니": 8837,
      "정권교체": 8838,
      "##에서도": 8839,
      "자꾸": 8840,
      "이명박": 8841,
      "황교": 8842,
      "##기로": 8843,
      "전문": 8844,
      "있냐": 8845,
      "원래": 8846,
      "판단": 8847,
      "나와": 8848,
      "서로": 8849,
      "##다는게": 8850,
      "생각이": 8851,
      "##들과": 8852,
      "양아치": 8853,
      "솔직히": 8854,
      "법무": 8855,
      "너네": 8856,
      "민주주의": 8857,
      "##없고": 8858,
      "회사": 8859,
      "야당": 8860,
      "##고싶": 8861,
      "##같다": 8862,
      "의원": 8863,
      "##자나": 8864,
      "응원합니다": 8865,
      "##히려": 8866,
      "##인다": 8867,
      "##ㅠㅠ": 8868,
      "비교": 8869,
      "##수준": 8870,
      "사람들은": 8871,
      "지가": 8872,
      "##해요": 8873,
      "##놈이": 8874,
      "##범죄": 8875,
      "##주택": 8876,
      "이유가": 8877,
      "사라": 8878,
      "##구요": 8879,
      "의료": 8880,
      "##으니까": 8881,
      "##ㅉㅉ": 8882,
      "봐라": 8883,
      "##시대": 8884,
      "보는": 8885,
      "##이었": 8886,
      "##는거냐": 8887,
      "##지원": 8888,
      "있어": 8889,
      "모르고": 8890,
      "##단체": 8891,
      "##겠다고": 8892,
      "##까요": 8893,
      "없네": 8894,
      "##국에": 8895,
      "토착왜구": 8896,
      "너는": 8897,
      "오히려": 8898,
      "##거든": 8899,
      "한심한": 8900,
      "대학": 8901,
      "그럴": 8902,
      "외교": 8903,
      "##가라": 8904,
      "찾아": 8905,
      "돼지": 8906,
      "나왔": 8907,
      "노무": 8908,
      "하지만": 8909,
      "##려야": 8910,
      "##하다고": 8911,
      "진심": 8912,
      "지키": 8913,
      "관련": 8914,
      "과거": 8915,
      "##르는": 8916,
      "##아도": 8917,
      "사랑": 8918,
      "싫어": 8919,
      "자격": 8920,
      "##두환": 8921,
      "있지": 8922,
      "##이버": 8923,
      "##총장": 8924,
      "내년": 8925,
      "알바": 8926,
      "비리": 8927,
      "거의": 8928,
      "그나": 8929,
      "##하라고": 8930,
      "개판": 8931,
      "##가지고": 8932,
      "##인거": 8933,
      "##접종": 8934,
      "어려": 8935,
      "일부": 8936,
      "이기": 8937,
      "가지": 8938,
      "주변": 8939,
      "나올": 8940,
      "하냐": 8941,
      "개혁": 8942,
      "했는데": 8943,
      "##나면": 8944,
      "판사": 8945,
      "고소": 8946,
      "##져야": 8947,
      "종교": 8948,
      "공산주의": 8949,
      "##이러스": 8950,
      "##식으로": 8951,
      "나경": 8952,
      "짱깨": 8953,
      "지들이": 8954,
      "##인의": 8955,
      "니들은": 8956,
      "##시길": 8957,
      "때문": 8958,
      "그거": 8959,
      "##식이": 8960,
      "항상": 8961,
      "##말이": 8962,
      "##우고": 8963,
      "이제는": 8964,
      "##했던": 8965,
      "강제": 8966,
      "맨날": 8967,
      "하는게": 8968,
      "엄마": 8969,
      "##사건": 8970,
      "##패스": 8971,
      "대부분": 8972,
      "위해서": 8973,
      "##정치": 8974,
      "저러": 8975,
      "무엇": 8976,
      "싶다": 8977,
      "있다고": 8978,
      "노무현": 8979,
      "헛소리": 8980,
      "한다고": 8981,
      "기회": 8982,
      "알았": 8983,
      "##지마": 8984,
      "국정": 8985,
      "##이라면": 8986,
      "대장": 8987,
      "되어": 8988,
      "정부는": 8989,
      "하여": 8990,
      "보이": 8991,
      "고생": 8992,
      "자리": 8993,
      "존재": 8994,
      "끝까지": 8995,
      "남의": 8996,
      "그동안": 8997,
      "국민은": 8998,
      "놈들": 8999,
      "한마디": 9000,
      "없는데": 9001,
      "일이": 9002,
      "최소": 9003,
      "좋겠다": 9004,
      "나서": 9005,
      "무섭": 9006,
      "기대": 9007,
      "현재": 9008,
      "입국": 9009,
      "##자고": 9010,
      "있습니다": 9011,
      "의심": 9012,
      "##성을": 9013,
      "다르": 9014,
      "되었": 9015,
      "##이든": 9016,
      "##먹는": 9017,
      "##사람이": 9018,
      "그건": 9019,
      "매국": 9020,
      "##분이": 9021,
      "수도": 9022,
      "부산": 9023,
      "친일파": 9024,
      "##자로": 9025,
      "도와": 9026,
      "자랑": 9027,
      "그것도": 9028,
      "안전": 9029,
      "국내": 9030,
      "위험": 9031,
      "주장": 9032,
      "##로운": 9033,
      "##더만": 9034,
      "재산": 9035,
      "##시키고": 9036,
      "문죄인": 9037,
      "조선족": 9038,
      "##에요": 9039,
      "##수사": 9040,
      "자체가": 9041,
      "되면": 9042,
      "##경제": 9043,
      "어이": 9044,
      "전두환": 9045,
      "##군요": 9046,
      "##되어": 9047,
      "전혀": 9048,
      "##리도": 9049,
      "내용": 9050,
      "일단": 9051,
      "##님이": 9052,
      "기다": 9053,
      "윤석렬": 9054,
      "이야기": 9055,
      "누군": 9056,
      "##들한테": 9057,
      "물어": 9058,
      "감염": 9059,
      "피해자": 9060,
      "##한다는": 9061,
      "##던지": 9062,
      "너도": 9063,
      "##에선": 9064,
      "있음": 9065,
      "##정이": 9066,
      "아냐": 9067,
      "##듯이": 9068,
      "학생": 9069,
      "이걸": 9070,
      "##한건": 9071,
      "##주면": 9072,
      "괜찮": 9073,
      "네이버": 9074,
      "라고": 9075,
      "더듬": 9076,
      "##나고": 9077,
      "신경": 9078,
      "##봐도": 9079,
      "##수록": 9080,
      "##하는건": 9081,
      "비판": 9082,
      "##했으면": 9083,
      "##겹다": 9084,
      "지금은": 9085,
      "사용": 9086,
      "준비": 9087,
      "15": 9088,
      "바뀌": 9089,
      "##인줄": 9090,
      "##시는": 9091,
      "거리": 9092,
      "무능한": 9093,
      "자빠": 9094,
      "병원": 9095,
      "문빠": 9096,
      "##하지만": 9097,
      "이낙": 9098,
      "##냐고": 9099,
      "##을텐데": 9100,
      "가는": 9101,
      "건강": 9102,
      "돈이": 9103,
      "분명": 9104,
      "드러": 9105,
      "##000": 9106,
      "오세": 9107,
      "것을": 9108,
      "아닌데": 9109,
      "최악": 9110,
      "도움": 9111,
      "역대": 9112,
      "##도가": 9113,
      "##우는": 9114,
      "중국인": 9115,
      "##만이": 9116,
      "안타깝": 9117,
      "상관": 9118,
      "사람을": 9119,
      "##조선": 9120,
      "##바로": 9121,
      "목숨": 9122,
      "##자들은": 9123,
      "정당": 9124,
      "입니다": 9125,
      "##어준": 9126,
      "하니": 9127,
      "아프": 9128,
      "돈을": 9129,
      "달창": 9130,
      "함께": 9131,
      "##지게": 9132,
      "##럼프": 9133,
      "아마": 9134,
      "그랬": 9135,
      "없음": 9136,
      "바랍니다": 9137,
      "직접": 9138,
      "전세계": 9139,
      "##보는": 9140,
      "##추행": 9141,
      "##보자": 9142,
      "나가": 9143,
      "것들이": 9144,
      "이해가": 9145,
      "##하는지": 9146,
      "##더라도": 9147,
      "민노총": 9148,
      "했다": 9149,
      "##집단": 9150,
      "ㅉㅉㅉ": 9151,
      "세금으로": 9152,
      "##개월": 9153,
      "확진자": 9154,
      "##내는": 9155,
      "억울": 9156,
      "여당": 9157,
      "똑같은": 9158,
      "주사": 9159,
      "##국이": 9160,
      "##금지": 9161,
      "눈치": 9162,
      "이것": 9163,
      "박원": 9164,
      "##작용": 9165,
      "하다": 9166,
      "##분들": 9167,
      "1년": 9168,
      "오세훈": 9169,
      "나중에": 9170,
      "방법": 9171,
      "##하네요": 9172,
      "어쩔": 9173,
      "이낙연": 9174,
      "##겠나": 9175,
      "주둥": 9176,
      "##이로": 9177,
      "##줘야": 9178,
      "##이를": 9179,
      "더럽": 9180,
      "##기만": 9181,
      "##당히": 9182,
      "고통": 9183,
      "##거냐": 9184,
      "##하지말고": 9185,
      "특히": 9186,
      "전과": 9187,
      "몰아": 9188,
      "의미": 9189,
      "트럼프": 9190,
      "대장동": 9191,
      "의혹": 9192,
      "사법": 9193,
      "##정책": 9194,
      "말하는": 9195,
      "힘내": 9196,
      "가격": 9197,
      "가만히": 9198,
      "##라니": 9199,
      "##생활": 9200,
      "확인": 9201,
      "##0년": 9202,
      "것들": 9203,
      "##겠다는": 9204,
      "##물이": 9205,
      "조용히": 9206,
      "나경원": 9207,
      "아니지": 9208,
      "당선": 9209,
      "하늘": 9210,
      "공감": 9211,
      "그저": 9212,
      "오래": 9213,
      "노력": 9214,
      "보호": 9215,
      "철저": 9216,
      "그러면": 9217,
      "처럼": 9218,
      "아닐": 9219,
      "하세요": 9220,
      "본인이": 9221,
      "노조": 9222,
      "정은": 9223,
      "온갖": 9224,
      "이정도": 9225,
      "아닙": 9226,
      "##들이다": 9227,
      "악마": 9228,
      "되고": 9229,
      "##여서": 9230,
      "이재명이": 9231,
      "일을": 9232,
      "민주당이": 9233,
      "투자": 9234,
      "알아서": 9235,
      "문재인은": 9236,
      "시대": 9237,
      "쓰고": 9238,
      "##장을": 9239,
      "##할까": 9240,
      "일본이": 9241,
      "##됩니다": 9242,
      "##정희": 9243,
      "##든지": 9244,
      "##수를": 9245,
      "##자기": 9246,
      "##걸로": 9247,
      "##나게": 9248,
      "에휴": 9249,
      "##가족": 9250,
      "부터": 9251,
      "전국민": 9252,
      "똑같이": 9253,
      "##사고": 9254,
      "##을거": 9255,
      "##줘라": 9256,
      "보기": 9257,
      "뭔가": 9258,
      "##상을": 9259,
      "도둑": 9260,
      "말은": 9261,
      "##어버": 9262,
      "주식": 9263,
      "조선일보": 9264,
      "바꿔": 9265,
      "대해": 9266,
      "답답": 9267,
      "청년": 9268,
      "벌써": 9269,
      "##많은": 9270,
      "심판": 9271,
      "지난": 9272,
      "민주당은": 9273,
      "싶은": 9274,
      "##돌아": 9275,
      "사회주의": 9276,
      "##온다": 9277,
      "동네": 9278,
      "가짜뉴스": 9279,
      "이놈": 9280,
      "사업": 9281,
      "##을듯": 9282,
      "말로": 9283,
      "평화": 9284,
      "##가락": 9285,
      "연예": 9286,
      "출신": 9287,
      "믿고": 9288,
      "우한": 9289,
      "심각": 9290,
      "##명을": 9291,
      "많다": 9292,
      "물론": 9293,
      "검찰개혁": 9294,
      "##하려고": 9295,
      "하자": 9296,
      "아버": 9297,
      "##쓰고": 9298,
      "##교육": 9299,
      "##었으면": 9300,
      "국개": 9301,
      "##자도": 9302,
      "##습니까": 9303,
      "##방송": 9304,
      "남편": 9305,
      "아니라고": 9306,
      "##져서": 9307,
      "판결": 9308,
      "애초": 9309,
      "더이상": 9310,
      "대출": 9311,
      "##수는": 9312,
      "인터": 9313,
      "가진": 9314,
      "##세금": 9315,
      "본다": 9316,
      "과연": 9317,
      "황교안": 9318,
      "##세력": 9319,
      "이익": 9320,
      "이상한": 9321,
      "##이라니": 9322,
      "##지말": 9323,
      "##때는": 9324,
      "모른": 9325,
      "힘든": 9326,
      "##정을": 9327,
      "상대": 9328,
      "바이러스": 9329,
      "##바리": 9330,
      "에라이": 9331,
      "##느라": 9332,
      "그대로": 9333,
      "##가가": 9334,
      "유승": 9335,
      "##스럽다": 9336,
      "문통": 9337,
      "지지하는": 9338,
      "이럴": 9339,
      "##는가": 9340,
      "##하니까": 9341,
      "##해야한다": 9342,
      "25": 9343,
      "##관계": 9344,
      "만들고": 9345,
      "올려": 9346,
      "강남": 9347,
      "윤석열이": 9348,
      "반일": 9349,
      "맞고": 9350,
      "##겠네요": 9351,
      "임명": 9352,
      "바꾸": 9353,
      "12": 9354,
      "##인가요": 9355,
      "수준이": 9356,
      "기가": 9357,
      "##학생": 9358,
      "##tt": 9359,
      "운전": 9360,
      "아무것도": 9361,
      "##했네": 9362,
      "##시오": 9363,
      "당신이": 9364,
      "위선": 9365,
      "##만한": 9366,
      "##중동": 9367,
      "##두고": 9368,
      "신고": 9369,
      "##진국": 9370,
      "##만에": 9371,
      "비난": 9372,
      "범죄자": 9373,
      "광주": 9374,
      "모자": 9375,
      "있다는": 9376,
      "##있네": 9377,
      "##시아": 9378,
      "법무부": 9379,
      "10년": 9380,
      "생각하는": 9381,
      "##인을": 9382,
      "가져": 9383,
      "##시켜라": 9384,
      "대통": 9385,
      "##합시다": 9386,
      "부작용": 9387,
      "집회": 9388,
      "##되지": 9389,
      "박정희": 9390,
      "노동": 9391,
      "##겠습니다": 9392,
      "않는다": 9393,
      "되지": 9394,
      "성추행": 9395,
      "조심": 9396,
      "똑같": 9397,
      "미쳤": 9398,
      "표현": 9399,
      "##사를": 9400,
      "##위해": 9401,
      "받을": 9402,
      "논리": 9403,
      "##그러": 9404,
      "##졌네": 9405,
      "분노": 9406,
      "부족": 9407,
      "김종": 9408,
      "깨끗": 9409,
      "##어가": 9410,
      "무너": 9411,
      "그나마": 9412,
      "까지": 9413,
      "##심이": 9414,
      "##순실": 9415,
      "##단다": 9416,
      "임대": 9417,
      "우리는": 9418,
      "##할거": 9419,
      "집에": 9420,
      "전화": 9421,
      "나오는": 9422,
      "끌어": 9423,
      "기생": 9424,
      "하나도": 9425,
      "경험": 9426,
      "조국이": 9427,
      "지금까지": 9428,
      "최저": 9429,
      "죽은": 9430,
      "음주": 9431,
      "아예": 9432,
      "기준": 9433,
      "놈이": 9434,
      "집안": 9435,
      "##가야": 9436,
      "대책": 9437,
      "##리네": 9438,
      "못하게": 9439,
      "하지말고": 9440,
      "##18": 9441,
      "가라": 9442,
      "##사람들": 9443,
      "##잖아요": 9444,
      "틀딱": 9445,
      "뽑아": 9446,
      "고민": 9447,
      "개발": 9448,
      "웃기": 9449,
      "ㅜㅜ": 9450,
      "##해봐라": 9451,
      "관계": 9452,
      "##세먼": 9453,
      "유시민": 9454,
      "종북": 9455,
      "태극": 9456,
      "##려나": 9457,
      "주고": 9458,
      "교수": 9459,
      "##미향": 9460,
      "강력": 9461,
      "저거": 9462,
      "느그": 9463,
      "한심하다": 9464,
      "지방": 9465,
      "조중동": 9466,
      "##사일": 9467,
      "집권": 9468,
      "##한것": 9469,
      "쓰는": 9470,
      "안맞": 9471,
      "고발": 9472,
      "2년": 9473,
      "폐지": 9474,
      "갑자기": 9475,
      "##만명": 9476,
      "이래서": 9477,
      "국제": 9478,
      "불매": 9479,
      "봐도": 9480,
      "##인듯": 9481,
      "없지": 9482,
      "직원": 9483,
      "##ttp": 9484,
      "인간들이": 9485,
      "들고": 9486,
      "##이트": 9487,
      "해주": 9488,
      "가해": 9489,
      "법을": 9490,
      "받았": 9491,
      "저지": 9492,
      "##30": 9493,
      "일본은": 9494,
      "##받아": 9495,
      "유승민": 9496,
      "독립": 9497,
      "때려": 9498,
      "##복을": 9499,
      "##머리": 9500,
      "애국": 9501,
      "##자의": 9502,
      "저게": 9503,
      "그래야": 9504,
      "##으려고": 9505,
      "없어서": 9506,
      "##으며": 9507,
      "없다고": 9508,
      "##하러": 9509,
      "답이다": 9510,
      "지도": 9511,
      "받는": 9512,
      "입장": 9513,
      "박원순": 9514,
      "##놈들이": 9515,
      "만드": 9516,
      "지금도": 9517,
      "충분": 9518,
      "이리": 9519,
      "정확": 9520,
      "뭐라": 9521,
      "##보내": 9522,
      "주는": 9523,
      "당대표": 9524,
      "유튜": 9525,
      "##겠죠": 9526,
      "관리": 9527,
      "윤미향": 9528,
      "토론": 9529,
      "포기": 9530,
      "잘못된": 9531,
      "기부": 9532,
      "기술": 9533,
      "##검사": 9534,
      "##지로": 9535,
      "##받는": 9536,
      "영원": 9537,
      "##서는": 9538,
      "원전": 9539,
      "한테": 9540,
      "그렇지": 9541,
      "몰랐": 9542,
      "없었": 9543,
      "##씨가": 9544,
      "매국노": 9545,
      "두고": 9546,
      "일자리": 9547,
      "##나보네": 9548,
      "##가능": 9549,
      "##이도": 9550,
      "짜증": 9551,
      "##없어": 9552,
      "##력을": 9553,
      "발언": 9554,
      "애초에": 9555,
      "영화": 9556,
      "싫다": 9557,
      "변호사": 9558,
      "세상이": 9559,
      "인사": 9560,
      "훨씬": 9561,
      "노인": 9562,
      "있을까": 9563,
      "놈들이": 9564,
      "##운전": 9565,
      "60": 9566,
      "살고": 9567,
      "##없네": 9568,
      "장모": 9569,
      "##먹은": 9570,
      "##립니다": 9571,
      "돌아가": 9572,
      "##질이": 9573,
      "제정신": 9574,
      "##폭행": 9575,
      "최순실": 9576,
      "어휴": 9577,
      "##하겠다": 9578,
      "##당한": 9579,
      "생각을": 9580,
      "희망": 9581,
      "없으면": 9582,
      "##제로": 9583,
      "http": 9584,
      "말씀": 9585,
      "애들이": 9586,
      "##럽다": 9587,
      "##부대": 9588,
      "우선": 9589,
      "##하하": 9590,
      "생긴": 9591,
      "행복": 9592,
      "기사를": 9593,
      "진정한": 9594,
      "생겼": 9595,
      "이러니": 9596,
      "대기업": 9597,
      "##같은데": 9598,
      "자가": 9599,
      "대한민국의": 9600,
      "##사회": 9601,
      "보도": 9602,
      "광화": 9603,
      "바라": 9604,
      "혹시": 9605,
      "밀어": 9606,
      "##잡고": 9607,
      "않나": 9608,
      "공공": 9609,
      "미안": 9610,
      "안나": 9611,
      "감방": 9612,
      "국민의힘": 9613,
      "##떨어": 9614,
      "##짓을": 9615,
      "할수": 9616,
      "죄다": 9617,
      "##공산": 9618,
      "이딴": 9619,
      "##위에": 9620,
      "##고도": 9621,
      "많아": 9622,
      "재앙이": 9623,
      "김건": 9624,
      "##mp": 9625,
      "생활": 9626,
      "##팔이": 9627,
      "##시킨": 9628,
      "안된": 9629,
      "발표": 9630,
      "부탁": 9631,
      "미세먼": 9632,
      "매일": 9633,
      "민족": 9634,
      "통일": 9635,
      "5년": 9636,
      "수십": 9637,
      "##으라고": 9638,
      "효과": 9639,
      "##체를": 9640,
      "##따위": 9641,
      "등등": 9642,
      "발전": 9643,
      "##당에": 9644,
      "재판": 9645,
      "있어야": 9646,
      "##방역": 9647,
      "전에": 9648,
      "무식한": 9649,
      "마누": 9650,
      "배신": 9651,
      "똑바로": 9652,
      "##일까": 9653,
      "자기가": 9654,
      "대놓고": 9655,
      "둘다": 9656,
      "우파": 9657,
      "##자식": 9658,
      "미국이": 9659,
      "국방": 9660,
      "##있고": 9661,
      "##간에": 9662,
      "돌려": 9663,
      "구라": 9664,
      "대변": 9665,
      "공격": 9666,
      "##선동": 9667,
      "입만": 9668,
      "따로": 9669,
      "희생": 9670,
      "미쳐": 9671,
      "##인들이": 9672,
      "##줌마": 9673,
      "여기서": 9674,
      "##제에": 9675,
      "##부가": 9676,
      "죽여": 9677,
      "##장은": 9678,
      "하는짓": 9679,
      "받은": 9680,
      "##치가": 9681,
      "들어가": 9682,
      "태극기": 9683,
      "나오면": 9684,
      "놓고": 9685,
      "배달": 9686,
      "검찰이": 9687,
      "공약": 9688,
      "##하신": 9689,
      "##쟁이": 9690,
      "적당히": 9691,
      "##싶다": 9692,
      "빼고": 9693,
      "다행": 9694,
      "광고": 9695,
      "##에만": 9696,
      "##하더니": 9697,
      "##되었": 9698,
      "꼬라지": 9699,
      "##먹을": 9700,
      "비슷": 9701,
      "대응": 9702,
      "##그래": 9703,
      "만드는": 9704,
      "##까봐": 9705,
      "##상공": 9706,
      "##하는것": 9707,
      "##득권": 9708,
      "##했냐": 9709,
      "##할듯": 9710,
      "알려": 9711,
      "사이비": 9712,
      "여행": 9713,
      "##레임": 9714,
      "200": 9715,
      "##언론": 9716,
      "##지사": 9717,
      "문정부": 9718,
      "아닌가요": 9719,
      "쪽팔": 9720,
      "##하려": 9721,
      "대한민국을": 9722,
      "제목": 9723,
      "인구": 9724,
      "##구석": 9725,
      "저질": 9726,
      "개가": 9727,
      "무죄": 9728,
      "맞다": 9729,
      "당신은": 9730,
      "국민들을": 9731,
      "##저리": 9732,
      "죽을": 9733,
      "신뢰": 9734,
      "불안": 9735,
      "아닙니다": 9736,
      "없으니": 9737,
      "이런거": 9738,
      "이번에": 9739,
      "썩은": 9740,
      "어렵": 9741,
      "언제까지": 9742,
      "마지": 9743,
      "##이네요": 9744,
      "운영": 9745,
      "짓거리": 9746,
      "있는지": 9747,
      "유지": 9748,
      "사람도": 9749,
      "뒤집": 9750,
      "사면": 9751,
      "장사": 9752,
      "재난": 9753,
      "##말로": 9754,
      "발생": 9755,
      "점점": 9756,
      "##한번": 9757,
      "느낌": 9758,
      "##있냐": 9759,
      "주사파": 9760,
      "살아라": 9761,
      "보상": 9762,
      "할머니": 9763,
      "##조차": 9764,
      "박영": 9765,
      "극우": 9766,
      "나와서": 9767,
      "조폭": 9768,
      "가슴": 9769,
      "인성": 9770,
      "진중": 9771,
      "##했지": 9772,
      "중국이": 9773,
      "##ㅡㅡㅡㅡ": 9774,
      "김어준": 9775,
      "옹호": 9776,
      "한국은": 9777,
      "##장에": 9778,
      "##사람은": 9779,
      "##한국": 9780,
      "##구먼": 9781,
      "##쓰레기": 9782,
      "##도로": 9783,
      "멍청한": 9784,
      "사태": 9785,
      "##하지마라": 9786,
      "성공": 9787,
      "##부로": 9788,
      "김건희": 9789,
      "물러": 9790,
      "경우": 9791,
      "돈벌": 9792,
      "아깝": 9793,
      "올리": 9794,
      "실패": 9795,
      "지구": 9796,
      "##는구나": 9797,
      "돈으로": 9798,
      "##보수": 9799,
      "정권이": 9800,
      "##였다": 9801,
      "지옥": 9802,
      "북한에": 9803,
      "기생충": 9804,
      "##ㄷㄷ": 9805,
      "오르": 9806,
      "2차": 9807,
      "금지": 9808,
      "##나간": 9809,
      "환경": 9810,
      "##화가": 9811,
      "##지네": 9812,
      "##임금": 9813,
      "##기관": 9814,
      "##달라고": 9815,
      "대한민국이": 9816,
      "하는지": 9817,
      "##백신": 9818,
      "처리": 9819,
      "남탓": 9820,
      "결정": 9821,
      "##니깐": 9822,
      "##치기": 9823,
      "철수": 9824,
      "##보다는": 9825,
      "만약": 9826,
      "말아": 9827,
      "70": 9828,
      "대통령은": 9829,
      "단체": 9830,
      "##었나": 9831,
      "바람": 9832,
      "쓰레기들": 9833,
      "있어서": 9834,
      "일제": 9835,
      "##씨는": 9836,
      "##했고": 9837,
      "##민주주의": 9838,
      "전국": 9839,
      "규제": 9840,
      "##소득": 9841,
      "됩니다": 9842,
      "맞지": 9843,
      "가면": 9844,
      "부정선거": 9845,
      "##아닌가": 9846,
      "##하다가": 9847,
      "##바닥": 9848,
      "##치를": 9849,
      "11": 9850,
      "amp": 9851,
      "어이가": 9852,
      "나라냐": 9853,
      "생각해": 9854,
      "##도를": 9855,
      "고맙": 9856,
      "##가를": 9857,
      "게임": 9858,
      "당시": 9859,
      "##학교": 9860,
      "인물": 9861,
      "##애들": 9862,
      "허위": 9863,
      "중국에": 9864,
      "한명": 9865,
      "누굴": 9866,
      "국짐당": 9867,
      "##어리": 9868,
      "기득권": 9869,
      "##출신": 9870,
      "##그네": 9871,
      "일어나": 9872,
      "시위": 9873,
      "##악한": 9874,
      "##보단": 9875,
      "하던": 9876,
      "##본다": 9877,
      "4년": 9878,
      "문재앙이": 9879,
      "세상에": 9880,
      "문제인": 9881,
      "바란다": 9882,
      "취급": 9883,
      "굳이": 9884,
      "##부모": 9885,
      "##주도": 9886,
      "설치": 9887,
      "##오는": 9888,
      "하기": 9889,
      "##있는데": 9890,
      "문정권": 9891,
      "##것들은": 9892,
      "##좋은": 9893,
      "소득": 9894,
      "쉽게": 9895,
      "임기": 9896,
      "정치를": 9897,
      "미사일": 9898,
      "치매": 9899,
      "아니야": 9900,
      "못할": 9901,
      "나라는": 9902,
      "풀어": 9903,
      "불러": 9904,
      "똑똑": 9905,
      "이후": 9906,
      "이제와서": 9907,
      "마지막": 9908,
      "##레이": 9909,
      "##았는데": 9910,
      "##지역": 9911,
      "##하지않": 9912,
      "##소년": 9913,
      "20대": 9914,
      "안가": 9915,
      "진중권": 9916,
      "##렸다": 9917,
      "무서운": 9918,
      "##말을": 9919,
      "예전": 9920,
      "늘어": 9921,
      "웃긴": 9922,
      "차별": 9923,
      "##화를": 9924,
      "냄새": 9925,
      "중앙": 9926,
      "석열": 9927,
      "보인다": 9928,
      "##보기": 9929,
      "##림픽": 9930,
      "자신의": 9931,
      "믿을": 9932,
      "##일을": 9933,
      "##ㅜㅜ": 9934,
      "이재명은": 9935,
      "협박": 9936,
      "벌어": 9937,
      "##겠어요": 9938,
      "##하셨": 9939,
      "법이": 9940,
      "조직": 9941,
      "19": 9942,
      "부르": 9943,
      "##댓글": 9944,
      "##해주세요": 9945,
      "그러니까": 9946,
      "##독교": 9947,
      "안돼": 9948,
      "##있나": 9949,
      "##러워": 9950,
      "광화문": 9951,
      "3년": 9952,
      "##세상": 9953,
      "찬성": 9954,
      "생기": 9955,
      "##진핑": 9956,
      "##겠어": 9957,
      "벌금": 9958,
      "##까운": 9959,
      "https": 9960,
      "나라에서": 9961,
      "택시": 9962,
      "하지마라": 9963,
      "마누라": 9964,
      "위안": 9965,
      "##만도": 9966,
      "마세요": 9967,
      "용서": 9968,
      "##일뿐": 9969,
      "원숭": 9970,
      "옛날": 9971,
      "준석": 9972,
      "##버리": 9973,
      "##재앙": 9974,
      "중공": 9975,
      "##도는": 9976,
      "없나": 9977,
      "전문가": 9978,
      "##주기": 9979,
      "##놓은": 9980,
      "도망": 9981,
      "아무도": 9982,
      "동물": 9983,
      "대해서": 9984,
      "호구": 9985,
      "##좌파": 9986,
      "##길래": 9987,
      "모양": 9988,
      "집에서": 9989,
      "##개발": 9990,
      "대단한": 9991,
      "##진짜": 9992,
      "##돈으로": 9993,
      "많은데": 9994,
      "착각": 9995,
      "존경": 9996,
      "요구": 9997,
      "몰라": 9998,
      "##인도": 9999,
      "있는거": 10000,
      "확실히": 10001,
      "고마": 10002,
      "없을": 10003,
      "여자가": 10004,
      "공매": 10005,
      "저기": 10006,
      "정보": 10007,
      "들이": 10008,
      "가정": 10009,
      "수입": 10010,
      "북한이": 10011,
      "아가리": 10012,
      "물타": 10013,
      "가르": 10014,
      "달라": 10015,
      "##거면": 10016,
      "아웃": 10017,
      "##님들": 10018,
      "##났다": 10019,
      "부패": 10020,
      "혜택": 10021,
      "쪽바리": 10022,
      "않을": 10023,
      "도덕": 10024,
      "##없음": 10025,
      "여론조사": 10026,
      "##이지만": 10027,
      "그러나": 10028,
      "무지": 10029,
      "어제": 10030,
      "##었네": 10031,
      "느끼": 10032,
      "한번도": 10033,
      "갖고": 10034,
      "##되서": 10035,
      "##들이나": 10036,
      "##성은": 10037,
      "물고": 10038,
      "##책임": 10039,
      "없습니다": 10040,
      "프로": 10041,
      "##때까지": 10042,
      "최소한": 10043,
      "우리나라는": 10044,
      "##권을": 10045,
      "##대고": 10046,
      "이재용": 10047,
      "lt": 10048,
      "##입니까": 10049,
      "철저히": 10050,
      "성폭행": 10051,
      "일어": 10052,
      "아나": 10053,
      "##짜리": 10054,
      "##심을": 10055,
      "어려운": 10056,
      "##한다면": 10057,
      "유치": 10058,
      "감성": 10059,
      "뇌물": 10060,
      "참으로": 10061,
      "##쳐서": 10062,
      "답이": 10063,
      "공급": 10064,
      "김대": 10065,
      "코로나로": 10066,
      "##인으로": 10067,
      "뭔지": 10068,
      "##받을": 10069,
      "정작": 10070,
      "##공자": 10071,
      "##준다": 10072,
      "감사합니다": 10073,
      "하긴": 10074,
      "우리도": 10075,
      "직장": 10076,
      "##때문": 10077,
      "더듬어": 10078,
      "180": 10079,
      "유럽": 10080,
      "짱개": 10081,
      "##했나": 10082,
      "유튜브": 10083,
      "손해": 10084,
      "했던": 10085,
      "##졌다": 10086,
      "##하겠지": 10087,
      "찍어": 10088,
      "왜구": 10089,
      "한국당": 10090,
      "저리": 10091,
      "수출": 10092,
      "자국민": 10093,
      "##우면": 10094,
      "성범죄": 10095,
      "대신": 10096,
      "좋아하는": 10097,
      "선생": 10098,
      "빨아": 10099,
      "##위원": 10100,
      "문제는": 10101,
      "무기": 10102,
      "필요한": 10103,
      "대단하다": 10104,
      "##19": 10105,
      "왜이": 10106,
      "나라의": 10107,
      "크게": 10108,
      "##거고": 10109,
      "너같은": 10110,
      "살기": 10111,
      "##워라": 10112,
      "##시절": 10113,
      "시원": 10114,
      "거부": 10115,
      "박영선": 10116,
      "마찬": 10117,
      "##상은": 10118,
      "한다는": 10119,
      "진행": 10120,
      "비싸": 10121,
      "화이자": 10122,
      "분열": 10123,
      "co": 10124,
      "1억": 10125,
      "##시기": 10126,
      "내부": 10127,
      "통제": 10128,
      "모지": 10129,
      "했으면": 10130,
      "근거": 10131,
      "싸움": 10132,
      "##지어": 10133,
      "아줌마": 10134,
      "빠져": 10135,
      "##민주당": 10136,
      "검증": 10137,
      "자연": 10138,
      "##적이고": 10139,
      "맞아": 10140,
      "##는다고": 10141,
      "##비가": 10142,
      "##맞고": 10143,
      "지껄": 10144,
      "서울대": 10145,
      "개념": 10146,
      "##아버": 10147,
      "##받은": 10148,
      "##업자": 10149,
      "선동질": 10150,
      "죄가": 10151,
      "서울시장": 10152,
      "보유": 10153,
      "의견": 10154,
      "눈물": 10155,
      "이중": 10156,
      "실망": 10157,
      "##것같": 10158,
      "국가가": 10159,
      "꼰대": 10160,
      "직업": 10161,
      "##하길": 10162,
      "나라에": 10163,
      "##이에": 10164,
      "씨부": 10165,
      "##했다는": 10166,
      "미개": 10167,
      "밝히": 10168,
      "어른": 10169,
      "청원": 10170,
      "##나가": 10171,
      "##을까요": 10172,
      "아빠": 10173,
      "경기도": 10174,
      "음주운전": 10175,
      "##리기": 10176,
      "인민": 10177,
      "##갔다": 10178,
      "꼴통": 10179,
      "받아야": 10180,
      "##루킹": 10181,
      "##세를": 10182,
      "##으나": 10183,
      "프레임": 10184,
      "말만": 10185,
      "민주화": 10186,
      "##사태": 10187,
      "책임을": 10188,
      "시진핑": 10189,
      "##의를": 10190,
      "##OOO": 10191,
      "뭐하는": 10192,
      "잘하고": 10193,
      "미군": 10194,
      "##시에": 10195,
      "##부는": 10196,
      "해체": 10197,
      "##셔서": 10198,
      "힘들어": 10199,
      "##은데": 10200,
      "국민들의": 10201,
      "목사": 10202,
      "##아지": 10203,
      "뭐라고": 10204,
      "##이기": 10205,
      "정신나간": 10206,
      "강간": 10207,
      "수가": 10208,
      "자영업자": 10209,
      "##상으로": 10210,
      "많네": 10211,
      "역겨": 10212,
      "##시면": 10213,
      "자빠졌네": 10214,
      "배우": 10215,
      "##안하고": 10216,
      "80": 10217,
      "가야": 10218,
      "물건": 10219,
      "죄를": 10220,
      "##느냐": 10221,
      "기분": 10222,
      "늙은": 10223,
      "거다": 10224,
      "현대": 10225,
      "자기들": 10226,
      "한달": 10227,
      "시절": 10228,
      "##일은": 10229,
      "통합": 10230,
      "소설": 10231,
      "생산": 10232,
      "##는것": 10233,
      "죽어": 10234,
      "노예": 10235,
      "지하": 10236,
      "##테니": 10237,
      "영업": 10238,
      "어리": 10239,
      "##스러운": 10240,
      "##트남": 10241,
      "평등": 10242,
      "재미": 10243,
      "여러분": 10244,
      "핑계": 10245,
      "음식": 10246,
      "없냐": 10247,
      "주세요": 10248,
      "##하다는": 10249,
      "미세먼지": 10250,
      "##조리": 10251,
      "대깨문들": 10252,
      "##관이": 10253,
      "##십니다": 10254,
      "운운": 10255,
      "뇌가": 10256,
      "##다운": 10257,
      "##구리": 10258,
      "합시다": 10259,
      "되는데": 10260,
      "##감이": 10261,
      "죽음": 10262,
      "ㅈㄹ": 10263,
      "경찰이": 10264,
      "##말은": 10265,
      "너나": 10266,
      "거리두": 10267,
      "나온다": 10268,
      "미통": 10269,
      "1도": 10270,
      "##보지": 10271,
      "##시켜야": 10272,
      "이성": 10273,
      "노래": 10274,
      "##분에": 10275,
      "저도": 10276,
      "##행위": 10277,
      "축하": 10278,
      "중국은": 10279,
      "##문회": 10280,
      "##필요": 10281,
      "일으": 10282,
      "다녀": 10283,
      "##었다고": 10284,
      "##여자": 10285,
      "##수수": 10286,
      "발악": 10287,
      "일본에": 10288,
      "삶은": 10289,
      "봐야": 10290,
      "문씨": 10291,
      "징역": 10292,
      "으로": 10293,
      "라는": 10294,
      "최저임금": 10295,
      "안될": 10296,
      "대한민국은": 10297,
      "좋다": 10298,
      "명복을": 10299,
      "정권의": 10300,
      "##장님": 10301,
      "##아니고": 10302,
      "못해": 10303,
      "##때도": 10304,
      "취소": 10305,
      "영원히": 10306,
      "힘내세요": 10307,
      "##즈아": 10308,
      "떠나": 10309,
      "정신병자": 10310,
      "짐승": 10311,
      "두번": 10312,
      "이것도": 10313,
      "##수로": 10314,
      "월세": 10315,
      "최악의": 10316,
      "##속에": 10317,
      "##법을": 10318,
      "##독재": 10319,
      "생각하고": 10320,
      "겁니다": 10321,
      "##한거지": 10322,
      "쩝쩝": 10323,
      "정치적": 10324,
      "포함": 10325,
      "간다": 10326,
      "자동": 10327,
      "##비리": 10328,
      "지원금": 10329,
      "괴롭": 10330,
      "나타": 10331,
      "정권을": 10332,
      "다를": 10333,
      "보자": 10334,
      "한국이": 10335,
      "순간": 10336,
      "마치": 10337,
      "한거": 10338,
      "이루": 10339,
      "##명은": 10340,
      "이지": 10341,
      "문화": 10342,
      "##되는데": 10343,
      "##들에": 10344,
      "중요한": 10345,
      "##지원금": 10346,
      "문제다": 10347,
      "##있으면": 10348,
      "대통령님": 10349,
      "몇년": 10350,
      "우습": 10351,
      "더욱": 10352,
      "선진국": 10353,
      "또한": 10354,
      "##폐렴": 10355,
      "문가": 10356,
      "##영웅": 10357,
      "폭등": 10358,
      "##었지": 10359,
      "##슬람": 10360,
      "윤석열은": 10361,
      "세금을": 10362,
      "공짜": 10363,
      "전기": 10364,
      "승리": 10365,
      "또라이": 10366,
      "소비": 10367,
      "##er": 10368,
      "역겹다": 10369,
      "##았네": 10370,
      "여가": 10371,
      "##리게": 10372,
      "한국인": 10373,
      "미리": 10374,
      "빕니다": 10375,
      "##사기": 10376,
      "악플": 10377,
      "##짓거리": 10378,
      "인터넷": 10379,
      "전체": 10380,
      "정상적인": 10381,
      "##아니냐": 10382,
      "##원은": 10383,
      "만나": 10384,
      "불편": 10385,
      "자유민주주의": 10386,
      "자본": 10387,
      "경쟁": 10388,
      "##세대": 10389,
      "먹는": 10390,
      "상태": 10391,
      "##상황": 10392,
      "일은": 10393,
      "##경영": 10394,
      "##ti": 10395,
      "##원도": 10396,
      "그지": 10397,
      "##시키는": 10398,
      "##있어": 10399,
      "위안부": 10400,
      "##놈은": 10401,
      "##겠니": 10402,
      "##질을": 10403,
      "창피": 10404,
      "생각은": 10405,
      "##쓰는": 10406,
      "##으려": 10407,
      "힘을": 10408,
      "뭔데": 10409,
      "##으세요": 10410,
      "별로": 10411,
      "##타령": 10412,
      "##원에": 10413,
      "말아먹": 10414,
      "연구": 10415,
      "##드립니다": 10416,
      "하게": 10417,
      "쯧쯧": 10418,
      "당연한": 10419,
      "이유는": 10420,
      "대선후보": 10421,
      "초등": 10422,
      "운동권": 10423,
      "오른": 10424,
      "폭망": 10425,
      "뭐하냐": 10426,
      "갖다": 10427,
      "괜히": 10428,
      "##상에": 10429,
      "의무": 10430,
      "##예요": 10431,
      "남한": 10432,
      "대박": 10433,
      "##코로나": 10434,
      "##스럽게": 10435,
      "적극": 10436,
      "##넘들": 10437,
      "대다": 10438,
      "##리냐": 10439,
      "##여행": 10440,
      "재명": 10441,
      "물타기": 10442,
      "##르게": 10443,
      "챙겨": 10444,
      "##한테는": 10445,
      "단순": 10446,
      "##이들이": 10447,
      "올림픽": 10448,
      "##놈의": 10449,
      "##사실": 10450,
      "짓을": 10451,
      "##아니라": 10452,
      "##반도": 10453,
      "##그리": 10454,
      "있다면": 10455,
      "##회사": 10456,
      "정부의": 10457,
      "김종인": 10458,
      "남성": 10459,
      "##로지": 10460,
      "마찬가지": 10461,
      "다시는": 10462,
      "버티": 10463,
      "가지가지": 10464,
      "##버리고": 10465,
      "타령": 10466,
      "##리자": 10467,
      "##당의": 10468,
      "##모양": 10469,
      "##아냐": 10470,
      "혐오": 10471,
      "적용": 10472,
      "##기들": 10473,
      "눈에": 10474,
      "거기에": 10475,
      "##디어": 10476,
      "부모가": 10477,
      "내고": 10478,
      "##이자": 10479,
      "나눠": 10480,
      "맘대로": 10481,
      "##단계": 10482,
      "##스템": 10483,
      "되는거": 10484,
      "결론": 10485,
      "기소": 10486,
      "##빨갱": 10487,
      "##나네": 10488,
      "그런거": 10489,
      "##쓴다": 10490,
      "개나": 10491,
      "합의": 10492,
      "한두": 10493,
      "너가": 10494,
      "##지에": 10495,
      "20년": 10496,
      "친중": 10497,
      "주민": 10498,
      "선수": 10499,
      "세력": 10500,
      "설명": 10501,
      "##오면": 10502,
      "##것만": 10503,
      "##하는거지": 10504,
      "##차별": 10505,
      "외국인": 10506,
      "##로는": 10507,
      "바른": 10508,
      "##라마": 10509,
      "충분히": 10510,
      "##물고": 10511,
      "취업": 10512,
      "##아가": 10513,
      "만큼": 10514,
      "##해놓고": 10515,
      "##라인": 10516,
      "##보험": 10517,
      "하나님": 10518,
      "##는데도": 10519,
      "작년": 10520,
      "##내서": 10521,
      "대권": 10522,
      "##통수": 10523,
      "##스런": 10524,
      "우린": 10525,
      "큰일": 10526,
      "##친다": 10527,
      "여자들": 10528,
      "##위가": 10529,
      "##빠진": 10530,
      "##당하고": 10531,
      "신문": 10532,
      "나머": 10533,
      "계약": 10534,
      "없다는": 10535,
      "##on": 10536,
      "##주지": 10537,
      "부끄럽": 10538,
      "합리": 10539,
      "화가": 10540,
      "봅니다": 10541,
      "##되냐": 10542,
      "##하는구나": 10543,
      "변명": 10544,
      "##투표": 10545,
      "그만해라": 10546,
      "최대": 10547,
      "##10": 10548,
      "불리": 10549,
      "##겠는데": 10550,
      "만들어서": 10551,
      "보통": 10552,
      "수구": 10553,
      "자녀": 10554,
      "이다": 10555,
      "교통": 10556,
      "국민에게": 10557,
      "드루킹": 10558,
      "##하고는": 10559,
      "##땜에": 10560,
      "정권은": 10561,
      "단일": 10562,
      "##든가": 10563,
      "##했을": 10564,
      "단어": 10565,
      "##도시": 10566,
      "##했는지": 10567,
      "2030": 10568,
      "민간": 10569,
      "##었던": 10570,
      "##께서": 10571,
      "##쳐먹": 10572,
      "해봐라": 10573,
      "있지만": 10574,
      "기독교": 10575,
      "새로운": 10576,
      "가고": 10577,
      "폭행": 10578,
      "영웅": 10579,
      "미국은": 10580,
      "마음이": 10581,
      "명예": 10582,
      "않으면": 10583,
      "##연금": 10584,
      "##달라": 10585,
      "90": 10586,
      "통계": 10587,
      "식당": 10588,
      "##장에서": 10589,
      "하라고": 10590,
      "남은": 10591,
      "뽑은": 10592,
      "영향": 10593,
      "오로지": 10594,
      "감싸": 10595,
      "##집회": 10596,
      "완전히": 10597,
      "원하는": 10598,
      "믿는": 10599,
      "초딩": 10600,
      "가자": 10601,
      "##많이": 10602,
      "구분": 10603,
      "##20": 10604,
      "마이": 10605,
      "##치면": 10606,
      "안해": 10607,
      "애들은": 10608,
      "되냐": 10609,
      "이어": 10610,
      "지능": 10611,
      "주택": 10612,
      "##호사": 10613,
      "나쁘": 10614,
      "##이며": 10615,
      "있어요": 10616,
      "러시아": 10617,
      "기관": 10618,
      "정은이": 10619,
      "##판에": 10620,
      "소름": 10621,
      "깜빵": 10622,
      "멀쩡": 10623,
      "북괴": 10624,
      "##레스": 10625,
      "군사": 10626,
      "##리나": 10627,
      "##잘못": 10628,
      "와서": 10629,
      "좋다고": 10630,
      "##었냐": 10631,
      "막말": 10632,
      "진실을": 10633,
      "동의": 10634,
      "정부에서": 10635,
      "##장으로": 10636,
      "하라": 10637,
      "아버지": 10638,
      "518": 10639,
      "헌법": 10640,
      "안하는": 10641,
      "팔아": 10642,
      "과학": 10643,
      "베트남": 10644,
      "계획": 10645,
      "통과": 10646,
      "한국에": 10647,
      "##셔야": 10648,
      "##민이": 10649,
      "하더니": 10650,
      "높은": 10651,
      "움직": 10652,
      "겨우": 10653,
      "##와라": 10654,
      "##꺼다": 10655,
      "##마트": 10656,
      "먹을": 10657,
      "##있음": 10658,
      "아깝다": 10659,
      "국민들에게": 10660,
      "자주": 10661,
      "##년이": 10662,
      "천벌": 10663,
      "나불": 10664,
      "모를": 10665,
      "존나": 10666,
      "중도": 10667,
      "OOO들": 10668,
      "싸우": 10669,
      "전광": 10670,
      "문대통령": 10671,
      "뭐야": 10672,
      "대통령을": 10673,
      "청문회": 10674,
      "##대를": 10675,
      "무리": 10676,
      "일부러": 10677,
      "##중이": 10678,
      "투기꾼": 10679,
      "지겹다": 10680,
      "이혼": 10681,
      "가난": 10682,
      "자체": 10683,
      "##당을": 10684,
      "소대가리": 10685,
      "임영웅": 10686,
      "경상도": 10687,
      "공작": 10688,
      "근무": 10689,
      "##줘서": 10690,
      "좌좀": 10691,
      "##조가": 10692,
      "표창": 10693,
      "모르겠다": 10694,
      "남녀": 10695,
      "전형": 10696,
      "##하긴": 10697,
      "대법": 10698,
      "쉴드": 10699,
      "##제가": 10700,
      "##투기": 10701,
      "분들": 10702,
      "하여간": 10703,
      "부끄러운": 10704,
      "언론이": 10705,
      "##무시": 10706,
      "1위": 10707,
      "양반": 10708,
      "알지": 10709,
      "정리": 10710,
      "활동": 10711,
      "절대로": 10712,
      "이라고": 10713,
      "##용이": 10714,
      "##세가": 10715,
      "방사": 10716,
      "칭찬": 10717,
      "잡고": 10718,
      "##수의": 10719,
      "##원에서": 10720,
      "300": 10721,
      "##검찰": 10722,
      "국개의원": 10723,
      "##네들": 10724,
      "느껴": 10725,
      "했다고": 10726,
      "듣고": 10727,
      "낫다": 10728,
      "##는건가": 10729,
      "된다고": 10730,
      "##세로": 10731,
      "동안": 10732,
      "백신을": 10733,
      "무섭다": 10734,
      "##으로서": 10735,
      "##리로": 10736,
      "##았으면": 10737,
      "교체": 10738,
      "##보세요": 10739,
      "줄어": 10740,
      "재수": 10741,
      "지지합니다": 10742,
      "문재인과": 10743,
      "##아님": 10744,
      "##이죠": 10745,
      "##이유": 10746,
      "##선을": 10747,
      "##사람들이": 10748,
      "##시요": 10749,
      "참고": 10750,
      "함부로": 10751,
      "거래": 10752,
      "이분": 10753,
      "택배": 10754,
      "180석": 10755,
      "보험": 10756,
      "부자": 10757,
      "퇴출": 10758,
      "예산": 10759,
      "##놈들은": 10760,
      "##할것": 10761,
      "거기서": 10762,
      "##안이": 10763,
      "난다": 10764,
      "##임을": 10765,
      "##서야": 10766,
      "지급": 10767,
      "애비": 10768,
      "머리가": 10769,
      "##해봐": 10770,
      "##그릇": 10771,
      "나베": 10772,
      "##좋아": 10773,
      "의료진": 10774,
      "증명": 10775,
      "LH": 10776,
      "수백": 10777,
      "강요": 10778,
      "##재명": 10779,
      "마약": 10780,
      "하는구나": 10781,
      "지지율이": 10782,
      "아이들": 10783,
      "##미터": 10784,
      "치고": 10785,
      "##마니": 10786,
      "조만": 10787,
      "격리": 10788,
      "외치": 10789,
      "돈은": 10790,
      "##기전에": 10791,
      "검찰총장": 10792,
      "시험": 10793,
      "##기나": 10794,
      "있는게": 10795,
      "40대": 10796,
      "올랐": 10797,
      "##장도": 10798,
      "스트": 10799,
      "##나온다": 10800,
      "감정": 10801,
      "##원전": 10802,
      "##제를": 10803,
      "##방에": 10804,
      "가즈아": 10805,
      "벌레": 10806,
      "해당": 10807,
      "갑질": 10808,
      "그렇다고": 10809,
[...]
